{
  "version": "1.0",
  "truncation": null,
  "padding": null,
  "added_tokens": [
    {
      "id": 0,
      "content": "<pad>",
      "single_word": false,
      "lstrip": false,
      "rstrip": false,
      "normalized": false,
      "special": true
    },
    {
      "id": 1,
      "content": "<|im_start|>",
      "single_word": false,
      "lstrip": false,
      "rstrip": false,
      "normalized": false,
      "special": true
    },
    {
      "id": 2,
      "content": "<|im_end|>",
      "single_word": false,
      "lstrip": false,
      "rstrip": false,
      "normalized": false,
      "special": true
    },
    {
      "id": 3,
      "content": "<unk>",
      "single_word": false,
      "lstrip": false,
      "rstrip": false,
      "normalized": false,
      "special": true
    },
    {
      "id": 4,
      "content": "<s>",
      "single_word": false,
      "lstrip": false,
      "rstrip": false,
      "normalized": false,
      "special": true
    },
    {
      "id": 5,
      "content": "</s>",
      "single_word": false,
      "lstrip": false,
      "rstrip": false,
      "normalized": false,
      "special": true
    },
    {
      "id": 6,
      "content": "<thinking>",
      "single_word": false,
      "lstrip": false,
      "rstrip": false,
      "normalized": false,
      "special": true
    },
    {
      "id": 7,
      "content": "</thinking>",
      "single_word": false,
      "lstrip": false,
      "rstrip": false,
      "normalized": false,
      "special": true
    },
    {
      "id": 8,
      "content": "<summary>",
      "single_word": false,
      "lstrip": false,
      "rstrip": false,
      "normalized": false,
      "special": true
    }
  ],
  "normalizer": null,
  "pre_tokenizer": {
    "type": "Sequence",
    "pretokenizers": [
      {
        "type": "Split",
        "pattern": {
          "String": "(?i:'s|'t|'re|'ve|'m|'ll|'d)|[^\\r\\n\\p{L}\\p{N}]?\\p{L}+|\\p{N}{1,3}| ?[^\\s\\p{L}\\p{N}]+[\\r\\n]*|\\s*[\\r\\n]|\\s+(?!\\S)|\\s+"
        },
        "behavior": "Isolated",
        "invert": false
      }
    ]
  },
  "post_processor": null,
  "decoder": {
    "type": "BPEDecoder",
    "suffix": "</w>"
  },
  "model": {
    "type": "BPE",
    "dropout": null,
    "unk_token": "<unk>",
    "continuing_subword_prefix": null,
    "end_of_word_suffix": null,
    "fuse_unk": false,
    "byte_fallback": false,
    "ignore_merges": false,
    "vocab": {
      "<pad>": 0,
      "<|im_start|>": 1,
      "<|im_end|>": 2,
      "<unk>": 3,
      "<s>": 4,
      "</s>": 5,
      "<thinking>": 6,
      "</thinking>": 7,
      "<summary>": 8,
      "\t": 9,
      "\n": 10,
      "\r": 11,
      " ": 12,
      "!": 13,
      "\"": 14,
      "#": 15,
      "$": 16,
      "%": 17,
      "&": 18,
      "'": 19,
      "(": 20,
      ")": 21,
      "*": 22,
      "+": 23,
      ",": 24,
      "-": 25,
      ".": 26,
      "/": 27,
      "0": 28,
      "1": 29,
      "2": 30,
      "3": 31,
      "4": 32,
      "5": 33,
      "6": 34,
      "7": 35,
      "8": 36,
      "9": 37,
      ":": 38,
      ";": 39,
      "<": 40,
      "=": 41,
      ">": 42,
      "?": 43,
      "@": 44,
      "A": 45,
      "B": 46,
      "C": 47,
      "D": 48,
      "E": 49,
      "F": 50,
      "G": 51,
      "H": 52,
      "I": 53,
      "J": 54,
      "K": 55,
      "L": 56,
      "M": 57,
      "N": 58,
      "O": 59,
      "P": 60,
      "Q": 61,
      "R": 62,
      "S": 63,
      "T": 64,
      "U": 65,
      "V": 66,
      "W": 67,
      "X": 68,
      "Y": 69,
      "Z": 70,
      "[": 71,
      "\\": 72,
      "]": 73,
      "^": 74,
      "_": 75,
      "`": 76,
      "a": 77,
      "b": 78,
      "c": 79,
      "d": 80,
      "e": 81,
      "f": 82,
      "g": 83,
      "h": 84,
      "i": 85,
      "j": 86,
      "k": 87,
      "l": 88,
      "m": 89,
      "n": 90,
      "o": 91,
      "p": 92,
      "q": 93,
      "r": 94,
      "s": 95,
      "t": 96,
      "u": 97,
      "v": 98,
      "w": 99,
      "x": 100,
      "y": 101,
      "z": 102,
      "{": 103,
      "|": 104,
      "}": 105,
      "~": 106,
      " ": 107,
      "¡": 108,
      "¢": 109,
      "£": 110,
      "¤": 111,
      "¥": 112,
      "¦": 113,
      "§": 114,
      "¨": 115,
      "©": 116,
      "ª": 117,
      "«": 118,
      "¬": 119,
      "®": 120,
      "¯": 121,
      "°": 122,
      "±": 123,
      "²": 124,
      "³": 125,
      "´": 126,
      "µ": 127,
      "¶": 128,
      "·": 129,
      "¸": 130,
      "¹": 131,
      "º": 132,
      "»": 133,
      "¼": 134,
      "½": 135,
      "¾": 136,
      "¿": 137,
      "À": 138,
      "Á": 139,
      "Â": 140,
      "Ã": 141,
      "Ä": 142,
      "Å": 143,
      "Æ": 144,
      "Ç": 145,
      "È": 146,
      "É": 147,
      "Ê": 148,
      "Ë": 149,
      "Ì": 150,
      "Í": 151,
      "Î": 152,
      "Ï": 153,
      "Ð": 154,
      "Ñ": 155,
      "Ò": 156,
      "Ó": 157,
      "Ô": 158,
      "Õ": 159,
      "Ö": 160,
      "×": 161,
      "Ø": 162,
      "Ù": 163,
      "Ú": 164,
      "Û": 165,
      "Ü": 166,
      "Ý": 167,
      "Þ": 168,
      "ß": 169,
      "à": 170,
      "á": 171,
      "â": 172,
      "ã": 173,
      "ä": 174,
      "å": 175,
      "æ": 176,
      "ç": 177,
      "è": 178,
      "é": 179,
      "ê": 180,
      "ë": 181,
      "ì": 182,
      "í": 183,
      "î": 184,
      "ï": 185,
      "ð": 186,
      "ñ": 187,
      "ò": 188,
      "ó": 189,
      "ô": 190,
      "õ": 191,
      "ö": 192,
      "÷": 193,
      "ø": 194,
      "ù": 195,
      "ú": 196,
      "û": 197,
      "ü": 198,
      "ý": 199,
      "þ": 200,
      "ÿ": 201,
      "Ā": 202,
      "ā": 203,
      "Ă": 204,
      "ă": 205,
      "Ą": 206,
      "ą": 207,
      "Ć": 208,
      "ć": 209,
      "Ĉ": 210,
      "ĉ": 211,
      "Ċ": 212,
      "ċ": 213,
      "Č": 214,
      "č": 215,
      "Ď": 216,
      "ď": 217,
      "Đ": 218,
      "đ": 219,
      "Ē": 220,
      "ē": 221,
      "Ĕ": 222,
      "ĕ": 223,
      "Ė": 224,
      "ė": 225,
      "Ę": 226,
      "ę": 227,
      "Ě": 228,
      "ě": 229,
      "Ĝ": 230,
      "ĝ": 231,
      "Ğ": 232,
      "ğ": 233,
      "Ġ": 234,
      "ġ": 235,
      "Ģ": 236,
      "ģ": 237,
      "Ĥ": 238,
      "ĥ": 239,
      "Ħ": 240,
      "ħ": 241,
      "Ĩ": 242,
      "ĩ": 243,
      "Ī": 244,
      "ī": 245,
      "Ĭ": 246,
      "ĭ": 247,
      "Į": 248,
      "į": 249,
      "İ": 250,
      "ı": 251,
      "Ĳ": 252,
      "ĳ": 253,
      "Ĵ": 254,
      "ĵ": 255,
      "Ķ": 256,
      "ķ": 257,
      "ĸ": 258,
      "Ĺ": 259,
      "ĺ": 260,
      "Ļ": 261,
      "ļ": 262,
      "Ľ": 263,
      "ľ": 264,
      "Ŀ": 265,
      "ŀ": 266,
      "Ł": 267,
      "ł": 268,
      "Ń": 269,
      "ŏ": 270,
      "ơ": 271,
      "ƪ": 272,
      "ǐ": 273,
      "ǒ": 274,
      "ɜ": 275,
      "ɾ": 276,
      "ɿ": 277,
      "ʃ": 278,
      "ʔ": 279,
      "ʕ": 280,
      "ʖ": 281,
      "˂": 282,
      "˃": 283,
      "˄": 284,
      "ˇ": 285,
      "ˉ": 286,
      "ˊ": 287,
      "ˋ": 288,
      "ˍ": 289,
      "˘": 290,
      "˙": 291,
      "˵": 292,
      "˶": 293,
      "̀": 294,
      "́": 295,
      "̄": 296,
      "̌": 297,
      "̑": 298,
      "̛": 299,
      "̡": 300,
      "̢": 301,
      "̥": 302,
      "̧": 303,
      "̨": 304,
      "̩": 305,
      "̫": 306,
      "̯": 307,
      "̴": 308,
      "̵": 309,
      "̶": 310,
      "̿": 311,
      "͈": 312,
      "͜": 313,
      "͞": 314,
      "͟": 315,
      "͡": 316,
      "Δ": 317,
      "Ψ": 318,
      "Ω": 319,
      "α": 320,
      "β": 321,
      "γ": 322,
      "δ": 323,
      "ε": 324,
      "θ": 325,
      "κ": 326,
      "μ": 327,
      "ο": 328,
      "π": 329,
      "ρ": 330,
      "ς": 331,
      "χ": 332,
      "ψ": 333,
      "ω": 334,
      "Д": 335,
      "д": 336,
      "з": 337,
      "с": 338,
      "Ծ": 339,
      "و": 340,
      "٩": 341,
      "ڡ": 342,
      "ڼ": 343,
      "۶": 344,
      "ू": 345,
      "१": 346,
      "இ": 347,
      "௰": 348,
      "౪": 349,
      "ಠ": 350,
      "ಡ": 351,
      "ಥ": 352,
      "ก": 353,
      "ฅ": 354,
      "ง": 355,
      "๑": 356,
      "ິ": 357,
      "ີ": 358,
      "ຶ": 359,
      "༎": 360,
      "༝": 361,
      "ཀ": 362,
      "ᐢ": 363,
      "ᓚ": 364,
      "ᕕ": 365,
      "ᕗ": 366,
      "ᕙ": 367,
      "ᕤ": 368,
      "ᕦ": 369,
      "ᗒ": 370,
      "ᗕ": 371,
      "ᗜ": 372,
      "ᗢ": 373,
      "ᗣ": 374,
      "ᗨ": 375,
      "ᘏ": 376,
      "ᴗ": 377,
      "ᴥ": 378,
      "ᵒ": 379,
      "᷄": 380,
      "᷅": 381,
      " ": 382,
      " ": 383,
      " ": 384,
      " ": 385,
      "​": 386,
      "‍": 387,
      "–": 388,
      "—": 389,
      "‘": 390,
      "’": 391,
      "“": 392,
      "”": 393,
      "•": 394,
      "…": 395,
      " ": 396,
      "′": 397,
      "‵": 398,
      "‶": 399,
      "‸": 400,
      "‼": 401,
      "‾": 402,
      "‿": 403,
      "⁄": 404,
      "⁍": 405,
      "⁎": 406,
      "⁻": 407,
      "⁼": 408,
      "₂": 409,
      "₃": 410,
      "₄": 411,
      "₌": 412,
      "₍": 413,
      "₎": 414,
      "⃣": 415,
      "℃": 416,
      "Ⅰ": 417,
      "Ⅱ": 418,
      "Ⅲ": 419,
      "Ⅳ": 420,
      "←": 421,
      "↑": 422,
      "→": 423,
      "↓": 424,
      "↕": 425,
      "↗": 426,
      "↼": 427,
      "⇀": 428,
      "∀": 429,
      "∇": 430,
      "−": 431,
      "√": 432,
      "∞": 433,
      "∠": 434,
      "∧": 435,
      "∼": 436,
      "≈": 437,
      "≖": 438,
      "≠": 439,
      "≡": 440,
      "≤": 441,
      "≥": 442,
      "≦": 443,
      "≧": 444,
      "⊂": 445,
      "⊙": 446,
      "⋞": 447,
      "⋟": 448,
      "⌐": 449,
      "⌒": 450,
      "⌓": 451,
      "⌚": 452,
      "⌛": 453,
      "⌣": 454,
      "⏩": 455,
      "⏰": 456,
      "⏱": 457,
      "⏳": 458,
      "⏸": 459,
      "⑅": 460,
      "①": 461,
      "②": 462,
      "③": 463,
      "④": 464,
      "⑤": 465,
      "⑥": 466,
      "⑦": 467,
      "Ⓦ": 468,
      "ⓐ": 469,
      "ⓗ": 470,
      "ⓣ": 471,
      "━": 472,
      "┙": 473,
      "┬": 474,
      "┻": 475,
      "╥": 476,
      "╬": 477,
      "╭": 478,
      "╮": 479,
      "╯": 480,
      "╰": 481,
      "╹": 482,
      "▀": 483,
      "▔": 484,
      "□": 485,
      "▫": 486,
      "▶": 487,
      "▽": 488,
      "◉": 489,
      "○": 490,
      "◍": 491,
      "●": 492,
      "◐": 493,
      "◑": 494,
      "◔": 495,
      "◕": 496,
      "◝": 497,
      "◞": 498,
      "◟": 499,
      "◠": 500,
      "◡": 501,
      "◦": 502,
      "☀": 503,
      "☁": 504,
      "☂": 505,
      "★": 506,
      "☆": 507,
      "☎": 508,
      "☑": 509,
      "☕": 510,
      "☝": 511,
      "☹": 512,
      "☺": 513,
      "♀": 514,
      "♂": 515,
      "♡": 516,
      "♥": 517,
      "♨": 518,
      "♪": 519,
      "♻": 520,
      "⚓": 521,
      "⚔": 522,
      "⚕": 523,
      "⚖": 524,
      "⚙": 525,
      "⚠": 526,
      "⚡": 527,
      "⚽": 528,
      "⚾": 529,
      "⛄": 530,
      "⛈": 531,
      "⛑": 532,
      "⛔": 533,
      "⛰": 534,
      "⛺": 535,
      "⛽": 536,
      "✂": 537,
      "✅": 538,
      "✈": 539,
      "✊": 540,
      "✋": 541,
      "✌": 542,
      "✍": 543,
      "✏": 544,
      "✓": 545,
      "✔": 546,
      "✖": 547,
      "✗": 548,
      "✦": 549,
      "✧": 550,
      "✨": 551,
      "✿": 552,
      "❄": 553,
      "❌": 554,
      "❓": 555,
      "❗": 556,
      "❛": 557,
      "❣": 558,
      "❤": 559,
      "❶": 560,
      "❷": 561,
      "❸": 562,
      "❹": 563,
      "➔": 564,
      "➕": 565,
      "➠": 566,
      "➡": 567,
      "➢": 568,
      "⬅": 569,
      "⬆": 570,
      "⬇": 571,
      "⬛": 572,
      "⭐": 573,
      "⭕": 574,
      "⺣": 575,
      "、": 576,
      "。": 577,
      "〃": 578,
      "〈": 579,
      "〉": 580,
      "《": 581,
      "》": 582,
      "「": 583,
      "」": 584,
      "『": 585,
      "』": 586,
      "【": 587,
      "】": 588,
      "〜": 589,
      "い": 590,
      "お": 591,
      "き": 592,
      "す": 593,
      "っ": 594,
      "つ": 595,
      "づ": 596,
      "と": 597,
      "の": 598,
      "び": 599,
      "ふ": 600,
      "へ": 601,
      "み": 602,
      "や": 603,
      "り": 604,
      "ん": 605,
      "゜": 606,
      "ゝ": 607,
      "ゞ": 608,
      "ツ": 609,
      "ノ": 610,
      "メ": 611,
      "ヮ": 612,
      "・": 613,
      "ー": 614,
      "ヽ": 615,
      "ヾ": 616,
      "ㄒ": 617,
      "ㅂ": 618,
      "ㅅ": 619,
      "ㅋ": 620,
      "ㅠ": 621,
      "ㅿ": 622,
      "㊙": 623,
      "䓬": 624,
      "一": 625,
      "丁": 626,
      "七": 627,
      "万": 628,
      "丈": 629,
      "三": 630,
      "上": 631,
      "下": 632,
      "不": 633,
      "与": 634,
      "丑": 635,
      "专": 636,
      "且": 637,
      "世": 638,
      "丘": 639,
      "丙": 640,
      "业": 641,
      "丛": 642,
      "东": 643,
      "丝": 644,
      "丢": 645,
      "两": 646,
      "严": 647,
      "丧": 648,
      "个": 649,
      "丫": 650,
      "中": 651,
      "丰": 652,
      "串": 653,
      "临": 654,
      "丸": 655,
      "丹": 656,
      "为": 657,
      "主": 658,
      "丽": 659,
      "举": 660,
      "丿": 661,
      "乃": 662,
      "久": 663,
      "么": 664,
      "义": 665,
      "之": 666,
      "乌": 667,
      "乍": 668,
      "乎": 669,
      "乏": 670,
      "乐": 671,
      "乒": 672,
      "乓": 673,
      "乔": 674,
      "乖": 675,
      "乘": 676,
      "乙": 677,
      "九": 678,
      "乞": 679,
      "也": 680,
      "习": 681,
      "乡": 682,
      "书": 683,
      "买": 684,
      "乱": 685,
      "乳": 686,
      "乾": 687,
      "了": 688,
      "予": 689,
      "争": 690,
      "事": 691,
      "二": 692,
      "于": 693,
      "亏": 694,
      "云": 695,
      "互": 696,
      "五": 697,
      "井": 698,
      "亚": 699,
      "些": 700,
      "亡": 701,
      "亢": 702,
      "交": 703,
      "亥": 704,
      "亦": 705,
      "产": 706,
      "亨": 707,
      "享": 708,
      "京": 709,
      "亭": 710,
      "亮": 711,
      "亲": 712,
      "亵": 713,
      "人": 714,
      "亿": 715,
      "什": 716,
      "仁": 717,
      "仅": 718,
      "仆": 719,
      "仇": 720,
      "今": 721,
      "介": 722,
      "仍": 723,
      "从": 724,
      "仑": 725,
      "仓": 726,
      "仔": 727,
      "仕": 728,
      "他": 729,
      "仗": 730,
      "付": 731,
      "仙": 732,
      "代": 733,
      "令": 734,
      "以": 735,
      "仨": 736,
      "仪": 737,
      "们": 738,
      "仰": 739,
      "仲": 740,
      "件": 741,
      "价": 742,
      "任": 743,
      "份": 744,
      "仿": 745,
      "企": 746,
      "伊": 747,
      "伍": 748,
      "伏": 749,
      "伐": 750,
      "休": 751,
      "众": 752,
      "优": 753,
      "伙": 754,
      "会": 755,
      "伞": 756,
      "伟": 757,
      "传": 758,
      "伤": 759,
      "伦": 760,
      "伪": 761,
      "伯": 762,
      "估": 763,
      "伴": 764,
      "伸": 765,
      "伺": 766,
      "似": 767,
      "伽": 768,
      "但": 769,
      "位": 770,
      "低": 771,
      "住": 772,
      "佐": 773,
      "佑": 774,
      "体": 775,
      "何": 776,
      "余": 777,
      "佛": 778,
      "作": 779,
      "佝": 780,
      "佟": 781,
      "你": 782,
      "佩": 783,
      "佬": 784,
      "佯": 785,
      "佳": 786,
      "佻": 787,
      "使": 788,
      "侃": 789,
      "侄": 790,
      "來": 791,
      "侈": 792,
      "例": 793,
      "侍": 794,
      "侏": 795,
      "供": 796,
      "依": 797,
      "侠": 798,
      "侣": 799,
      "侥": 800,
      "侦": 801,
      "侧": 802,
      "侬": 803,
      "侮": 804,
      "侯": 805,
      "侵": 806,
      "便": 807,
      "促": 808,
      "俄": 809,
      "俊": 810,
      "俎": 811,
      "俏": 812,
      "俑": 813,
      "俗": 814,
      "俘": 815,
      "保": 816,
      "俞": 817,
      "信": 818,
      "俩": 819,
      "俭": 820,
      "修": 821,
      "俯": 822,
      "俱": 823,
      "俺": 824,
      "個": 825,
      "倌": 826,
      "倍": 827,
      "倒": 828,
      "倔": 829,
      "候": 830,
      "倚": 831,
      "借": 832,
      "倡": 833,
      "倦": 834,
      "倪": 835,
      "债": 836,
      "值": 837,
      "倾": 838,
      "偃": 839,
      "假": 840,
      "偎": 841,
      "偏": 842,
      "做": 843,
      "停": 844,
      "健": 845,
      "偶": 846,
      "偷": 847,
      "偻": 848,
      "偿": 849,
      "傅": 850,
      "傍": 851,
      "储": 852,
      "催": 853,
      "傲": 854,
      "傳": 855,
      "傻": 856,
      "像": 857,
      "僚": 858,
      "僧": 859,
      "僵": 860,
      "僻": 861,
      "儒": 862,
      "儿": 863,
      "兀": 864,
      "允": 865,
      "元": 866,
      "兄": 867,
      "充": 868,
      "兆": 869,
      "先": 870,
      "光": 871,
      "克": 872,
      "免": 873,
      "兑": 874,
      "兔": 875,
      "党": 876,
      "兜": 877,
      "兢": 878,
      "入": 879,
      "內": 880,
      "全": 881,
      "八": 882,
      "公": 883,
      "六": 884,
      "兮": 885,
      "兰": 886,
      "共": 887,
      "关": 888,
      "兴": 889,
      "兵": 890,
      "其": 891,
      "具": 892,
      "典": 893,
      "兹": 894,
      "养": 895,
      "兼": 896,
      "兽": 897,
      "内": 898,
      "冈": 899,
      "册": 900,
      "再": 901,
      "冒": 902,
      "冗": 903,
      "写": 904,
      "军": 905,
      "农": 906,
      "冠": 907,
      "冤": 908,
      "冥": 909,
      "冬": 910,
      "冰": 911,
      "冲": 912,
      "决": 913,
      "况": 914,
      "冷": 915,
      "冻": 916,
      "冽": 917,
      "净": 918,
      "凄": 919,
      "准": 920,
      "凉": 921,
      "凋": 922,
      "凌": 923,
      "减": 924,
      "凑": 925,
      "凛": 926,
      "凝": 927,
      "几": 928,
      "凡": 929,
      "凤": 930,
      "凭": 931,
      "凯": 932,
      "凰": 933,
      "凳": 934,
      "凶": 935,
      "凸": 936,
      "凹": 937,
      "出": 938,
      "击": 939,
      "函": 940,
      "凿": 941,
      "刀": 942,
      "刁": 943,
      "刃": 944,
      "分": 945,
      "切": 946,
      "刊": 947,
      "刍": 948,
      "刑": 949,
      "划": 950,
      "列": 951,
      "刘": 952,
      "则": 953,
      "刚": 954,
      "创": 955,
      "初": 956,
      "删": 957,
      "判": 958,
      "別": 959,
      "刨": 960,
      "利": 961,
      "别": 962,
      "刮": 963,
      "到": 964,
      "制": 965,
      "刷": 966,
      "券": 967,
      "刹": 968,
      "刺": 969,
      "刻": 970,
      "剁": 971,
      "剂": 972,
      "削": 973,
      "剌": 974,
      "前": 975,
      "剑": 976,
      "剔": 977,
      "剖": 978,
      "剜": 979,
      "剥": 980,
      "剧": 981,
      "剩": 982,
      "剪": 983,
      "副": 984,
      "割": 985,
      "剿": 986,
      "劈": 987,
      "力": 988,
      "劝": 989,
      "办": 990,
      "功": 991,
      "加": 992,
      "务": 993,
      "劣": 994,
      "动": 995,
      "助": 996,
      "努": 997,
      "劫": 998,
      "励": 999,
      "劲": 1000,
      "劳": 1001,
      "势": 1002,
      "勃": 1003,
      "勇": 1004,
      "勉": 1005,
      "勋": 1006,
      "勐": 1007,
      "勒": 1008,
      "動": 1009,
      "勘": 1010,
      "勤": 1011,
      "勺": 1012,
      "勾": 1013,
      "勿": 1014,
      "匀": 1015,
      "包": 1016,
      "匆": 1017,
      "化": 1018,
      "北": 1019,
      "匙": 1020,
      "匝": 1021,
      "匠": 1022,
      "匣": 1023,
      "匪": 1024,
      "匮": 1025,
      "匹": 1026,
      "区": 1027,
      "医": 1028,
      "匿": 1029,
      "十": 1030,
      "千": 1031,
      "升": 1032,
      "午": 1033,
      "半": 1034,
      "华": 1035,
      "协": 1036,
      "卑": 1037,
      "卒": 1038,
      "卓": 1039,
      "单": 1040,
      "卖": 1041,
      "南": 1042,
      "博": 1043,
      "卜": 1044,
      "卟": 1045,
      "占": 1046,
      "卡": 1047,
      "卢": 1048,
      "卤": 1049,
      "卦": 1050,
      "卧": 1051,
      "卫": 1052,
      "卯": 1053,
      "印": 1054,
      "危": 1055,
      "即": 1056,
      "却": 1057,
      "卵": 1058,
      "卷": 1059,
      "卸": 1060,
      "卿": 1061,
      "厂": 1062,
      "厄": 1063,
      "厅": 1064,
      "历": 1065,
      "厉": 1066,
      "压": 1067,
      "厌": 1068,
      "厕": 1069,
      "厘": 1070,
      "厚": 1071,
      "原": 1072,
      "厢": 1073,
      "厥": 1074,
      "厦": 1075,
      "厨": 1076,
      "厩": 1077,
      "去": 1078,
      "县": 1079,
      "参": 1080,
      "又": 1081,
      "叉": 1082,
      "及": 1083,
      "友": 1084,
      "双": 1085,
      "反": 1086,
      "发": 1087,
      "叒": 1088,
      "叔": 1089,
      "叕": 1090,
      "取": 1091,
      "受": 1092,
      "变": 1093,
      "叙": 1094,
      "叛": 1095,
      "叠": 1096,
      "口": 1097,
      "古": 1098,
      "句": 1099,
      "另": 1100,
      "叨": 1101,
      "叩": 1102,
      "只": 1103,
      "叫": 1104,
      "召": 1105,
      "叭": 1106,
      "叮": 1107,
      "可": 1108,
      "台": 1109,
      "史": 1110,
      "右": 1111,
      "叶": 1112,
      "号": 1113,
      "司": 1114,
      "叹": 1115,
      "叻": 1116,
      "叼": 1117,
      "叽": 1118,
      "吁": 1119,
      "吃": 1120,
      "各": 1121,
      "吆": 1122,
      "合": 1123,
      "吉": 1124,
      "吊": 1125,
      "同": 1126,
      "名": 1127,
      "后": 1128,
      "吐": 1129,
      "向": 1130,
      "吒": 1131,
      "吓": 1132,
      "吕": 1133,
      "吖": 1134,
      "吗": 1135,
      "君": 1136,
      "吝": 1137,
      "吞": 1138,
      "吟": 1139,
      "吠": 1140,
      "吡": 1141,
      "否": 1142,
      "吧": 1143,
      "吨": 1144,
      "含": 1145,
      "听": 1146,
      "吭": 1147,
      "吮": 1148,
      "启": 1149,
      "吱": 1150,
      "吲": 1151,
      "吴": 1152,
      "吵": 1153,
      "吸": 1154,
      "吹": 1155,
      "吻": 1156,
      "吼": 1157,
      "吾": 1158,
      "呀": 1159,
      "呃": 1160,
      "呆": 1161,
      "呈": 1162,
      "告": 1163,
      "呋": 1164,
      "呐": 1165,
      "呓": 1166,
      "呕": 1167,
      "呗": 1168,
      "员": 1169,
      "呛": 1170,
      "呜": 1171,
      "呢": 1172,
      "呤": 1173,
      "呦": 1174,
      "周": 1175,
      "呱": 1176,
      "呲": 1177,
      "味": 1178,
      "呴": 1179,
      "呵": 1180,
      "呷": 1181,
      "呸": 1182,
      "呻": 1183,
      "呼": 1184,
      "命": 1185,
      "咀": 1186,
      "咂": 1187,
      "咄": 1188,
      "咆": 1189,
      "咋": 1190,
      "和": 1191,
      "咎": 1192,
      "咏": 1193,
      "咐": 1194,
      "咒": 1195,
      "咔": 1196,
      "咕": 1197,
      "咖": 1198,
      "咙": 1199,
      "咚": 1200,
      "咛": 1201,
      "咝": 1202,
      "咣": 1203,
      "咦": 1204,
      "咧": 1205,
      "咨": 1206,
      "咩": 1207,
      "咪": 1208,
      "咫": 1209,
      "咬": 1210,
      "咯": 1211,
      "咱": 1212,
      "咳": 1213,
      "咸": 1214,
      "咻": 1215,
      "咽": 1216,
      "咿": 1217,
      "哀": 1218,
      "品": 1219,
      "哄": 1220,
      "哆": 1221,
      "哇": 1222,
      "哈": 1223,
      "哉": 1224,
      "哌": 1225,
      "响": 1226,
      "哎": 1227,
      "哏": 1228,
      "哐": 1229,
      "哑": 1230,
      "哒": 1231,
      "哔": 1232,
      "哗": 1233,
      "哚": 1234,
      "哟": 1235,
      "哥": 1236,
      "哦": 1237,
      "哧": 1238,
      "哨": 1239,
      "哩": 1240,
      "哪": 1241,
      "哭": 1242,
      "哮": 1243,
      "哲": 1244,
      "哺": 1245,
      "哼": 1246,
      "哽": 1247,
      "唆": 1248,
      "唇": 1249,
      "唉": 1250,
      "唐": 1251,
      "唑": 1252,
      "唔": 1253,
      "唠": 1254,
      "唢": 1255,
      "唤": 1256,
      "唧": 1257,
      "唬": 1258,
      "售": 1259,
      "唯": 1260,
      "唰": 1261,
      "唱": 1262,
      "唾": 1263,
      "啁": 1264,
      "啃": 1265,
      "啄": 1266,
      "商": 1267,
      "啉": 1268,
      "啊": 1269,
      "啕": 1270,
      "啜": 1271,
      "啡": 1272,
      "啤": 1273,
      "啥": 1274,
      "啦": 1275,
      "啧": 1276,
      "啪": 1277,
      "啫": 1278,
      "啮": 1279,
      "啰": 1280,
      "啵": 1281,
      "啶": 1282,
      "啷": 1283,
      "啸": 1284,
      "啼": 1285,
      "啾": 1286,
      "喀": 1287,
      "喂": 1288,
      "喃": 1289,
      "善": 1290,
      "喇": 1291,
      "喉": 1292,
      "喊": 1293,
      "喋": 1294,
      "喏": 1295,
      "喔": 1296,
      "喘": 1297,
      "喙": 1298,
      "喜": 1299,
      "喝": 1300,
      "喧": 1301,
      "喱": 1302,
      "喲": 1303,
      "喳": 1304,
      "喵": 1305,
      "喷": 1306,
      "喹": 1307,
      "喻": 1308,
      "喽": 1309,
      "嗅": 1310,
      "嗐": 1311,
      "嗑": 1312,
      "嗒": 1313,
      "嗓": 1314,
      "嗖": 1315,
      "嗜": 1316,
      "嗝": 1317,
      "嗞": 1318,
      "嗡": 1319,
      "嗤": 1320,
      "嗦": 1321,
      "嗨": 1322,
      "嗪": 1323,
      "嗯": 1324,
      "嗲": 1325,
      "嗳": 1326,
      "嗷": 1327,
      "嗽": 1328,
      "嘀": 1329,
      "嘈": 1330,
      "嘉": 1331,
      "嘌": 1332,
      "嘎": 1333,
      "嘘": 1334,
      "嘚": 1335,
      "嘛": 1336,
      "嘞": 1337,
      "嘟": 1338,
      "嘣": 1339,
      "嘤": 1340,
      "嘧": 1341,
      "嘬": 1342,
      "嘭": 1343,
      "嘮": 1344,
      "嘱": 1345,
      "嘲": 1346,
      "嘴": 1347,
      "嘶": 1348,
      "嘹": 1349,
      "嘻": 1350,
      "嘿": 1351,
      "噌": 1352,
      "噎": 1353,
      "噔": 1354,
      "噗": 1355,
      "噘": 1356,
      "噜": 1357,
      "噢": 1358,
      "器": 1359,
      "噩": 1360,
      "噪": 1361,
      "噫": 1362,
      "噬": 1363,
      "噱": 1364,
      "噻": 1365,
      "噼": 1366,
      "嚎": 1367,
      "嚏": 1368,
      "嚓": 1369,
      "嚣": 1370,
      "嚯": 1371,
      "嚷": 1372,
      "嚼": 1373,
      "囊": 1374,
      "囔": 1375,
      "囚": 1376,
      "四": 1377,
      "回": 1378,
      "因": 1379,
      "团": 1380,
      "囤": 1381,
      "囧": 1382,
      "囫": 1383,
      "园": 1384,
      "困": 1385,
      "囱": 1386,
      "围": 1387,
      "囵": 1388,
      "固": 1389,
      "国": 1390,
      "图": 1391,
      "圆": 1392,
      "圈": 1393,
      "土": 1394,
      "圣": 1395,
      "在": 1396,
      "地": 1397,
      "圳": 1398,
      "场": 1399,
      "圾": 1400,
      "址": 1401,
      "均": 1402,
      "坊": 1403,
      "坍": 1404,
      "坎": 1405,
      "坏": 1406,
      "坐": 1407,
      "坑": 1408,
      "块": 1409,
      "坚": 1410,
      "坛": 1411,
      "坝": 1412,
      "坞": 1413,
      "坟": 1414,
      "坠": 1415,
      "坡": 1416,
      "坤": 1417,
      "坦": 1418,
      "坨": 1419,
      "坪": 1420,
      "坯": 1421,
      "坷": 1422,
      "垂": 1423,
      "垃": 1424,
      "型": 1425,
      "垒": 1426,
      "垛": 1427,
      "垢": 1428,
      "垫": 1429,
      "垮": 1430,
      "埂": 1431,
      "埃": 1432,
      "埋": 1433,
      "城": 1434,
      "域": 1435,
      "埠": 1436,
      "培": 1437,
      "基": 1438,
      "堂": 1439,
      "堆": 1440,
      "堑": 1441,
      "堕": 1442,
      "堡": 1443,
      "堤": 1444,
      "堪": 1445,
      "堵": 1446,
      "塌": 1447,
      "塑": 1448,
      "塔": 1449,
      "塘": 1450,
      "塞": 1451,
      "填": 1452,
      "境": 1453,
      "墅": 1454,
      "墓": 1455,
      "墙": 1456,
      "增": 1457,
      "墟": 1458,
      "墨": 1459,
      "墩": 1460,
      "壁": 1461,
      "壕": 1462,
      "壤": 1463,
      "士": 1464,
      "壬": 1465,
      "壮": 1466,
      "声": 1467,
      "壳": 1468,
      "壶": 1469,
      "壹": 1470,
      "处": 1471,
      "备": 1472,
      "复": 1473,
      "夏": 1474,
      "夕": 1475,
      "外": 1476,
      "多": 1477,
      "夜": 1478,
      "够": 1479,
      "大": 1480,
      "天": 1481,
      "太": 1482,
      "夫": 1483,
      "夭": 1484,
      "央": 1485,
      "失": 1486,
      "头": 1487,
      "夷": 1488,
      "夸": 1489,
      "夹": 1490,
      "夺": 1491,
      "奇": 1492,
      "奈": 1493,
      "奉": 1494,
      "奋": 1495,
      "奎": 1496,
      "奏": 1497,
      "契": 1498,
      "奔": 1499,
      "奕": 1500,
      "奖": 1501,
      "套": 1502,
      "奢": 1503,
      "奥": 1504,
      "奮": 1505,
      "女": 1506,
      "奴": 1507,
      "奶": 1508,
      "奸": 1509,
      "她": 1510,
      "好": 1511,
      "如": 1512,
      "妃": 1513,
      "妄": 1514,
      "妆": 1515,
      "妇": 1516,
      "妈": 1517,
      "妊": 1518,
      "妒": 1519,
      "妖": 1520,
      "妙": 1521,
      "妞": 1522,
      "妥": 1523,
      "妨": 1524,
      "妮": 1525,
      "妹": 1526,
      "妻": 1527,
      "妾": 1528,
      "姆": 1529,
      "姊": 1530,
      "始": 1531,
      "姐": 1532,
      "姑": 1533,
      "姓": 1534,
      "委": 1535,
      "姗": 1536,
      "姚": 1537,
      "姜": 1538,
      "姥": 1539,
      "姨": 1540,
      "姬": 1541,
      "姻": 1542,
      "姿": 1543,
      "威": 1544,
      "娃": 1545,
      "娄": 1546,
      "娆": 1547,
      "娇": 1548,
      "娓": 1549,
      "娘": 1550,
      "娜": 1551,
      "娠": 1552,
      "娥": 1553,
      "娩": 1554,
      "娱": 1555,
      "娲": 1556,
      "娶": 1557,
      "婆": 1558,
      "婉": 1559,
      "婊": 1560,
      "婚": 1561,
      "婪": 1562,
      "婴": 1563,
      "婶": 1564,
      "婿": 1565,
      "媒": 1566,
      "媚": 1567,
      "媲": 1568,
      "媳": 1569,
      "嫁": 1570,
      "嫂": 1571,
      "嫉": 1572,
      "嫌": 1573,
      "嫒": 1574,
      "嫔": 1575,
      "嫖": 1576,
      "嫦": 1577,
      "嫩": 1578,
      "嬉": 1579,
      "嬛": 1580,
      "嬷": 1581,
      "子": 1582,
      "孔": 1583,
      "孕": 1584,
      "字": 1585,
      "存": 1586,
      "孙": 1587,
      "孜": 1588,
      "孝": 1589,
      "孟": 1590,
      "孢": 1591,
      "季": 1592,
      "孤": 1593,
      "学": 1594,
      "孩": 1595,
      "孪": 1596,
      "孵": 1597,
      "孽": 1598,
      "宁": 1599,
      "它": 1600,
      "宅": 1601,
      "宇": 1602,
      "守": 1603,
      "安": 1604,
      "宋": 1605,
      "完": 1606,
      "宏": 1607,
      "宕": 1608,
      "宗": 1609,
      "官": 1610,
      "宙": 1611,
      "定": 1612,
      "宛": 1613,
      "宜": 1614,
      "宝": 1615,
      "实": 1616,
      "宠": 1617,
      "审": 1618,
      "客": 1619,
      "宣": 1620,
      "室": 1621,
      "宪": 1622,
      "宫": 1623,
      "宰": 1624,
      "害": 1625,
      "宴": 1626,
      "宵": 1627,
      "家": 1628,
      "容": 1629,
      "宽": 1630,
      "宾": 1631,
      "宿": 1632,
      "寂": 1633,
      "寄": 1634,
      "寅": 1635,
      "密": 1636,
      "富": 1637,
      "寐": 1638,
      "寒": 1639,
      "寓": 1640,
      "寝": 1641,
      "寞": 1642,
      "察": 1643,
      "寡": 1644,
      "寤": 1645,
      "寨": 1646,
      "寰": 1647,
      "寸": 1648,
      "对": 1649,
      "寺": 1650,
      "寻": 1651,
      "导": 1652,
      "寿": 1653,
      "封": 1654,
      "射": 1655,
      "将": 1656,
      "將": 1657,
      "尉": 1658,
      "尊": 1659,
      "導": 1660,
      "小": 1661,
      "少": 1662,
      "尔": 1663,
      "尖": 1664,
      "尘": 1665,
      "尚": 1666,
      "尝": 1667,
      "尤": 1668,
      "尥": 1669,
      "尬": 1670,
      "就": 1671,
      "尴": 1672,
      "尸": 1673,
      "尺": 1674,
      "尼": 1675,
      "尽": 1676,
      "尾": 1677,
      "尿": 1678,
      "局": 1679,
      "屁": 1680,
      "层": 1681,
      "居": 1682,
      "屈": 1683,
      "屉": 1684,
      "届": 1685,
      "屋": 1686,
      "屎": 1687,
      "屏": 1688,
      "屑": 1689,
      "展": 1690,
      "属": 1691,
      "屠": 1692,
      "屡": 1693,
      "履": 1694,
      "山": 1695,
      "屿": 1696,
      "岁": 1697,
      "岂": 1698,
      "岌": 1699,
      "岐": 1700,
      "岔": 1701,
      "岗": 1702,
      "岚": 1703,
      "岛": 1704,
      "岩": 1705,
      "岭": 1706,
      "岳": 1707,
      "岸": 1708,
      "岿": 1709,
      "峙": 1710,
      "峡": 1711,
      "峰": 1712,
      "崇": 1713,
      "崎": 1714,
      "崖": 1715,
      "崛": 1716,
      "崩": 1717,
      "崭": 1718,
      "崴": 1719,
      "崽": 1720,
      "嵌": 1721,
      "巅": 1722,
      "巍": 1723,
      "川": 1724,
      "州": 1725,
      "巡": 1726,
      "巢": 1727,
      "工": 1728,
      "左": 1729,
      "巧": 1730,
      "巨": 1731,
      "巩": 1732,
      "巫": 1733,
      "差": 1734,
      "巯": 1735,
      "己": 1736,
      "已": 1737,
      "巴": 1738,
      "巷": 1739,
      "巾": 1740,
      "币": 1741,
      "市": 1742,
      "布": 1743,
      "帅": 1744,
      "帆": 1745,
      "师": 1746,
      "希": 1747,
      "帐": 1748,
      "帕": 1749,
      "帖": 1750,
      "帘": 1751,
      "帚": 1752,
      "帜": 1753,
      "帝": 1754,
      "带": 1755,
      "帧": 1756,
      "席": 1757,
      "帮": 1758,
      "帷": 1759,
      "常": 1760,
      "帽": 1761,
      "幅": 1762,
      "幌": 1763,
      "幔": 1764,
      "幕": 1765,
      "干": 1766,
      "平": 1767,
      "年": 1768,
      "并": 1769,
      "幸": 1770,
      "幹": 1771,
      "幺": 1772,
      "幻": 1773,
      "幼": 1774,
      "幽": 1775,
      "广": 1776,
      "庄": 1777,
      "庆": 1778,
      "庇": 1779,
      "床": 1780,
      "序": 1781,
      "庐": 1782,
      "库": 1783,
      "应": 1784,
      "底": 1785,
      "庖": 1786,
      "店": 1787,
      "庙": 1788,
      "府": 1789,
      "庞": 1790,
      "废": 1791,
      "度": 1792,
      "座": 1793,
      "庭": 1794,
      "康": 1795,
      "庸": 1796,
      "廉": 1797,
      "廊": 1798,
      "廓": 1799,
      "延": 1800,
      "建": 1801,
      "开": 1802,
      "异": 1803,
      "弃": 1804,
      "弄": 1805,
      "弈": 1806,
      "弊": 1807,
      "式": 1808,
      "弓": 1809,
      "引": 1810,
      "弗": 1811,
      "弛": 1812,
      "弟": 1813,
      "张": 1814,
      "弥": 1815,
      "弦": 1816,
      "弧": 1817,
      "弩": 1818,
      "弯": 1819,
      "弱": 1820,
      "弹": 1821,
      "强": 1822,
      "归": 1823,
      "当": 1824,
      "录": 1825,
      "彗": 1826,
      "彡": 1827,
      "形": 1828,
      "彤": 1829,
      "彦": 1830,
      "彩": 1831,
      "彪": 1832,
      "彭": 1833,
      "彰": 1834,
      "影": 1835,
      "役": 1836,
      "彻": 1837,
      "彼": 1838,
      "往": 1839,
      "征": 1840,
      "径": 1841,
      "待": 1842,
      "很": 1843,
      "徉": 1844,
      "徊": 1845,
      "律": 1846,
      "徐": 1847,
      "徒": 1848,
      "得": 1849,
      "徘": 1850,
      "徙": 1851,
      "徜": 1852,
      "御": 1853,
      "循": 1854,
      "微": 1855,
      "德": 1856,
      "徽": 1857,
      "心": 1858,
      "必": 1859,
      "忆": 1860,
      "忌": 1861,
      "忍": 1862,
      "忏": 1863,
      "忐": 1864,
      "忑": 1865,
      "忒": 1866,
      "志": 1867,
      "忘": 1868,
      "忙": 1869,
      "忠": 1870,
      "忡": 1871,
      "忧": 1872,
      "忪": 1873,
      "快": 1874,
      "念": 1875,
      "忽": 1876,
      "忾": 1877,
      "怀": 1878,
      "态": 1879,
      "怂": 1880,
      "怄": 1881,
      "怅": 1882,
      "怎": 1883,
      "怒": 1884,
      "怔": 1885,
      "怕": 1886,
      "怖": 1887,
      "怜": 1888,
      "思": 1889,
      "怠": 1890,
      "怡": 1891,
      "急": 1892,
      "怦": 1893,
      "性": 1894,
      "怨": 1895,
      "怪": 1896,
      "怯": 1897,
      "怵": 1898,
      "总": 1899,
      "怼": 1900,
      "恋": 1901,
      "恍": 1902,
      "恐": 1903,
      "恒": 1904,
      "恕": 1905,
      "恙": 1906,
      "恢": 1907,
      "恤": 1908,
      "恨": 1909,
      "恩": 1910,
      "恭": 1911,
      "息": 1912,
      "恰": 1913,
      "恳": 1914,
      "恶": 1915,
      "恸": 1916,
      "恼": 1917,
      "恿": 1918,
      "悄": 1919,
      "悉": 1920,
      "悍": 1921,
      "悔": 1922,
      "悖": 1923,
      "悚": 1924,
      "悟": 1925,
      "悠": 1926,
      "患": 1927,
      "悦": 1928,
      "您": 1929,
      "悬": 1930,
      "悯": 1931,
      "悲": 1932,
      "悴": 1933,
      "悸": 1934,
      "悼": 1935,
      "情": 1936,
      "惆": 1937,
      "惊": 1938,
      "惋": 1939,
      "惑": 1940,
      "惕": 1941,
      "惘": 1942,
      "惚": 1943,
      "惜": 1944,
      "惠": 1945,
      "惦": 1946,
      "惧": 1947,
      "惨": 1948,
      "惩": 1949,
      "惫": 1950,
      "惬": 1951,
      "惮": 1952,
      "惯": 1953,
      "惰": 1954,
      "想": 1955,
      "惹": 1956,
      "惺": 1957,
      "愁": 1958,
      "愈": 1959,
      "愉": 1960,
      "意": 1961,
      "愕": 1962,
      "愚": 1963,
      "感": 1964,
      "愣": 1965,
      "愤": 1966,
      "愧": 1967,
      "愿": 1968,
      "慈": 1969,
      "慌": 1970,
      "慎": 1971,
      "慑": 1972,
      "慕": 1973,
      "慢": 1974,
      "慧": 1975,
      "慨": 1976,
      "慮": 1977,
      "慰": 1978,
      "慵": 1979,
      "慷": 1980,
      "憋": 1981,
      "憔": 1982,
      "憧": 1983,
      "憨": 1984,
      "憩": 1985,
      "憬": 1986,
      "憾": 1987,
      "懂": 1988,
      "懈": 1989,
      "懊": 1990,
      "懒": 1991,
      "懦": 1992,
      "懵": 1993,
      "戈": 1994,
      "戊": 1995,
      "戌": 1996,
      "戏": 1997,
      "成": 1998,
      "我": 1999,
      "戒": 2000,
      "或": 2001,
      "战": 2002,
      "戚": 2003,
      "戛": 2004,
      "截": 2005,
      "戳": 2006,
      "戴": 2007,
      "户": 2008,
      "戾": 2009,
      "房": 2010,
      "所": 2011,
      "扁": 2012,
      "扇": 2013,
      "扉": 2014,
      "手": 2015,
      "才": 2016,
      "扎": 2017,
      "扑": 2018,
      "扒": 2019,
      "打": 2020,
      "扔": 2021,
      "托": 2022,
      "扛": 2023,
      "扣": 2024,
      "执": 2025,
      "扩": 2026,
      "扫": 2027,
      "扬": 2028,
      "扭": 2029,
      "扮": 2030,
      "扯": 2031,
      "扰": 2032,
      "扳": 2033,
      "扶": 2034,
      "批": 2035,
      "扼": 2036,
      "找": 2037,
      "承": 2038,
      "技": 2039,
      "抄": 2040,
      "抉": 2041,
      "把": 2042,
      "抑": 2043,
      "抒": 2044,
      "抓": 2045,
      "投": 2046,
      "抖": 2047,
      "抗": 2048,
      "折": 2049,
      "抚": 2050,
      "抛": 2051,
      "抠": 2052,
      "抡": 2053,
      "抢": 2054,
      "护": 2055,
      "报": 2056,
      "披": 2057,
      "抬": 2058,
      "抱": 2059,
      "抵": 2060,
      "抹": 2061,
      "抻": 2062,
      "押": 2063,
      "抽": 2064,
      "抿": 2065,
      "拂": 2066,
      "拄": 2067,
      "担": 2068,
      "拆": 2069,
      "拇": 2070,
      "拉": 2071,
      "拌": 2072,
      "拍": 2073,
      "拎": 2074,
      "拐": 2075,
      "拒": 2076,
      "拓": 2077,
      "拔": 2078,
      "拖": 2079,
      "拗": 2080,
      "拘": 2081,
      "拙": 2082,
      "招": 2083,
      "拜": 2084,
      "拟": 2085,
      "拢": 2086,
      "拣": 2087,
      "拥": 2088,
      "拦": 2089,
      "拧": 2090,
      "拨": 2091,
      "择": 2092,
      "括": 2093,
      "拭": 2094,
      "拮": 2095,
      "拯": 2096,
      "拱": 2097,
      "拳": 2098,
      "拴": 2099,
      "拷": 2100,
      "拼": 2101,
      "拽": 2102,
      "拾": 2103,
      "拿": 2104,
      "持": 2105,
      "挂": 2106,
      "指": 2107,
      "按": 2108,
      "挑": 2109,
      "挖": 2110,
      "挚": 2111,
      "挛": 2112,
      "挞": 2113,
      "挟": 2114,
      "挠": 2115,
      "挡": 2116,
      "挣": 2117,
      "挤": 2118,
      "挥": 2119,
      "挨": 2120,
      "挪": 2121,
      "挫": 2122,
      "振": 2123,
      "挲": 2124,
      "挺": 2125,
      "挽": 2126,
      "捂": 2127,
      "捅": 2128,
      "捆": 2129,
      "捉": 2130,
      "捋": 2131,
      "捍": 2132,
      "捎": 2133,
      "捏": 2134,
      "捐": 2135,
      "捕": 2136,
      "捞": 2137,
      "损": 2138,
      "捡": 2139,
      "换": 2140,
      "捣": 2141,
      "捧": 2142,
      "据": 2143,
      "捶": 2144,
      "捷": 2145,
      "捺": 2146,
      "捻": 2147,
      "掀": 2148,
      "掂": 2149,
      "授": 2150,
      "掉": 2151,
      "掌": 2152,
      "掏": 2153,
      "掐": 2154,
      "排": 2155,
      "掖": 2156,
      "掘": 2157,
      "掠": 2158,
      "探": 2159,
      "接": 2160,
      "控": 2161,
      "推": 2162,
      "掩": 2163,
      "措": 2164,
      "掰": 2165,
      "掷": 2166,
      "掺": 2167,
      "揉": 2168,
      "揍": 2169,
      "描": 2170,
      "提": 2171,
      "插": 2172,
      "握": 2173,
      "揣": 2174,
      "揪": 2175,
      "揭": 2176,
      "援": 2177,
      "揽": 2178,
      "搀": 2179,
      "搁": 2180,
      "搂": 2181,
      "搅": 2182,
      "搏": 2183,
      "搐": 2184,
      "搓": 2185,
      "搔": 2186,
      "搜": 2187,
      "搞": 2188,
      "搡": 2189,
      "搦": 2190,
      "搪": 2191,
      "搬": 2192,
      "搭": 2193,
      "携": 2194,
      "摁": 2195,
      "摄": 2196,
      "摆": 2197,
      "摇": 2198,
      "摊": 2199,
      "摔": 2200,
      "摘": 2201,
      "摞": 2202,
      "摧": 2203,
      "摩": 2204,
      "摸": 2205,
      "摹": 2206,
      "撂": 2207,
      "撅": 2208,
      "撇": 2209,
      "撑": 2210,
      "撒": 2211,
      "撕": 2212,
      "撞": 2213,
      "撤": 2214,
      "撩": 2215,
      "撬": 2216,
      "播": 2217,
      "撮": 2218,
      "撰": 2219,
      "撵": 2220,
      "撸": 2221,
      "撼": 2222,
      "擀": 2223,
      "擂": 2224,
      "擅": 2225,
      "操": 2226,
      "擎": 2227,
      "擒": 2228,
      "擘": 2229,
      "擞": 2230,
      "擤": 2231,
      "擦": 2232,
      "攀": 2233,
      "攒": 2234,
      "攥": 2235,
      "支": 2236,
      "收": 2237,
      "攸": 2238,
      "改": 2239,
      "攻": 2240,
      "放": 2241,
      "政": 2242,
      "故": 2243,
      "效": 2244,
      "敌": 2245,
      "敏": 2246,
      "救": 2247,
      "教": 2248,
      "敛": 2249,
      "敞": 2250,
      "敢": 2251,
      "散": 2252,
      "敦": 2253,
      "敬": 2254,
      "数": 2255,
      "敲": 2256,
      "整": 2257,
      "敷": 2258,
      "文": 2259,
      "斋": 2260,
      "斑": 2261,
      "斓": 2262,
      "斗": 2263,
      "料": 2264,
      "斜": 2265,
      "斤": 2266,
      "斥": 2267,
      "斧": 2268,
      "斩": 2269,
      "断": 2270,
      "斯": 2271,
      "新": 2272,
      "斷": 2273,
      "方": 2274,
      "於": 2275,
      "施": 2276,
      "旁": 2277,
      "旅": 2278,
      "旋": 2279,
      "族": 2280,
      "旗": 2281,
      "无": 2282,
      "既": 2283,
      "日": 2284,
      "旦": 2285,
      "旧": 2286,
      "旨": 2287,
      "早": 2288,
      "旮": 2289,
      "旯": 2290,
      "旱": 2291,
      "时": 2292,
      "旷": 2293,
      "旺": 2294,
      "昂": 2295,
      "昆": 2296,
      "明": 2297,
      "昏": 2298,
      "易": 2299,
      "昔": 2300,
      "昙": 2301,
      "星": 2302,
      "映": 2303,
      "春": 2304,
      "昧": 2305,
      "昨": 2306,
      "昭": 2307,
      "是": 2308,
      "昵": 2309,
      "昼": 2310,
      "显": 2311,
      "晃": 2312,
      "晋": 2313,
      "晏": 2314,
      "晒": 2315,
      "晓": 2316,
      "晕": 2317,
      "晖": 2318,
      "晚": 2319,
      "晝": 2320,
      "晦": 2321,
      "晨": 2322,
      "晩": 2323,
      "普": 2324,
      "景": 2325,
      "晰": 2326,
      "晴": 2327,
      "晶": 2328,
      "晷": 2329,
      "智": 2330,
      "晾": 2331,
      "暂": 2332,
      "暄": 2333,
      "暇": 2334,
      "暑": 2335,
      "暖": 2336,
      "暗": 2337,
      "暧": 2338,
      "暮": 2339,
      "暴": 2340,
      "曙": 2341,
      "曝": 2342,
      "曦": 2343,
      "曰": 2344,
      "曲": 2345,
      "曳": 2346,
      "更": 2347,
      "曹": 2348,
      "曼": 2349,
      "曾": 2350,
      "替": 2351,
      "最": 2352,
      "會": 2353,
      "月": 2354,
      "有": 2355,
      "朊": 2356,
      "朋": 2357,
      "服": 2358,
      "朕": 2359,
      "朗": 2360,
      "望": 2361,
      "朝": 2362,
      "期": 2363,
      "朦": 2364,
      "木": 2365,
      "未": 2366,
      "末": 2367,
      "本": 2368,
      "札": 2369,
      "术": 2370,
      "朱": 2371,
      "朴": 2372,
      "朵": 2373,
      "机": 2374,
      "杀": 2375,
      "杂": 2376,
      "权": 2377,
      "杆": 2378,
      "杈": 2379,
      "杉": 2380,
      "李": 2381,
      "杏": 2382,
      "材": 2383,
      "村": 2384,
      "杓": 2385,
      "杖": 2386,
      "杜": 2387,
      "杞": 2388,
      "束": 2389,
      "杠": 2390,
      "条": 2391,
      "来": 2392,
      "杨": 2393,
      "杯": 2394,
      "杰": 2395,
      "杳": 2396,
      "杵": 2397,
      "杷": 2398,
      "松": 2399,
      "板": 2400,
      "极": 2401,
      "构": 2402,
      "枇": 2403,
      "枉": 2404,
      "析": 2405,
      "枕": 2406,
      "林": 2407,
      "枚": 2408,
      "果": 2409,
      "枝": 2410,
      "枢": 2411,
      "枣": 2412,
      "枪": 2413,
      "枫": 2414,
      "枯": 2415,
      "枳": 2416,
      "架": 2417,
      "枷": 2418,
      "枸": 2419,
      "柄": 2420,
      "柏": 2421,
      "某": 2422,
      "柑": 2423,
      "染": 2424,
      "柔": 2425,
      "柚": 2426,
      "柜": 2427,
      "柠": 2428,
      "查": 2429,
      "柬": 2430,
      "柯": 2431,
      "柱": 2432,
      "柳": 2433,
      "柴": 2434,
      "柿": 2435,
      "栀": 2436,
      "栅": 2437,
      "标": 2438,
      "栈": 2439,
      "栉": 2440,
      "栋": 2441,
      "栏": 2442,
      "树": 2443,
      "栓": 2444,
      "栖": 2445,
      "栗": 2446,
      "校": 2447,
      "栩": 2448,
      "株": 2449,
      "样": 2450,
      "核": 2451,
      "根": 2452,
      "格": 2453,
      "栽": 2454,
      "桂": 2455,
      "桃": 2456,
      "框": 2457,
      "案": 2458,
      "桉": 2459,
      "桌": 2460,
      "桐": 2461,
      "桑": 2462,
      "桓": 2463,
      "桔": 2464,
      "桠": 2465,
      "桡": 2466,
      "档": 2467,
      "桥": 2468,
      "桨": 2469,
      "桩": 2470,
      "桶": 2471,
      "梁": 2472,
      "梅": 2473,
      "梆": 2474,
      "梗": 2475,
      "梢": 2476,
      "梦": 2477,
      "梧": 2478,
      "梨": 2479,
      "梭": 2480,
      "梯": 2481,
      "械": 2482,
      "梳": 2483,
      "梵": 2484,
      "检": 2485,
      "棂": 2486,
      "棉": 2487,
      "棋": 2488,
      "棍": 2489,
      "棒": 2490,
      "棕": 2491,
      "棘": 2492,
      "棚": 2493,
      "棠": 2494,
      "森": 2495,
      "棱": 2496,
      "棵": 2497,
      "棺": 2498,
      "椅": 2499,
      "椋": 2500,
      "植": 2501,
      "椎": 2502,
      "椒": 2503,
      "椭": 2504,
      "椰": 2505,
      "楂": 2506,
      "楔": 2507,
      "楚": 2508,
      "楦": 2509,
      "楷": 2510,
      "楼": 2511,
      "概": 2512,
      "榄": 2513,
      "榔": 2514,
      "榕": 2515,
      "榜": 2516,
      "榨": 2517,
      "榴": 2518,
      "榻": 2519,
      "構": 2520,
      "槌": 2521,
      "槐": 2522,
      "槛": 2523,
      "槟": 2524,
      "槽": 2525,
      "樟": 2526,
      "模": 2527,
      "横": 2528,
      "樱": 2529,
      "橄": 2530,
      "橇": 2531,
      "橘": 2532,
      "橙": 2533,
      "橡": 2534,
      "橱": 2535,
      "橹": 2536,
      "橼": 2537,
      "檀": 2538,
      "檐": 2539,
      "檫": 2540,
      "檬": 2541,
      "欠": 2542,
      "次": 2543,
      "欢": 2544,
      "欣": 2545,
      "欧": 2546,
      "欲": 2547,
      "欸": 2548,
      "欺": 2549,
      "款": 2550,
      "歇": 2551,
      "歉": 2552,
      "歌": 2553,
      "止": 2554,
      "正": 2555,
      "此": 2556,
      "步": 2557,
      "武": 2558,
      "歧": 2559,
      "歪": 2560,
      "歹": 2561,
      "死": 2562,
      "歼": 2563,
      "殃": 2564,
      "殆": 2565,
      "殊": 2566,
      "残": 2567,
      "殓": 2568,
      "殖": 2569,
      "殴": 2570,
      "段": 2571,
      "殷": 2572,
      "殿": 2573,
      "毁": 2574,
      "毂": 2575,
      "毅": 2576,
      "母": 2577,
      "每": 2578,
      "毒": 2579,
      "比": 2580,
      "毕": 2581,
      "毙": 2582,
      "毛": 2583,
      "毡": 2584,
      "毫": 2585,
      "毯": 2586,
      "氏": 2587,
      "民": 2588,
      "氓": 2589,
      "气": 2590,
      "氛": 2591,
      "氟": 2592,
      "氢": 2593,
      "氤": 2594,
      "氧": 2595,
      "氨": 2596,
      "氪": 2597,
      "氮": 2598,
      "氯": 2599,
      "氲": 2600,
      "水": 2601,
      "永": 2602,
      "汀": 2603,
      "汁": 2604,
      "求": 2605,
      "汇": 2606,
      "汉": 2607,
      "汐": 2608,
      "汗": 2609,
      "汝": 2610,
      "汞": 2611,
      "江": 2612,
      "池": 2613,
      "污": 2614,
      "汤": 2615,
      "汪": 2616,
      "汰": 2617,
      "汹": 2618,
      "決": 2619,
      "汽": 2620,
      "沁": 2621,
      "沃": 2622,
      "沉": 2623,
      "沌": 2624,
      "沐": 2625,
      "沒": 2626,
      "沓": 2627,
      "沙": 2628,
      "沛": 2629,
      "沟": 2630,
      "没": 2631,
      "沥": 2632,
      "沦": 2633,
      "沫": 2634,
      "沮": 2635,
      "河": 2636,
      "沸": 2637,
      "油": 2638,
      "治": 2639,
      "沼": 2640,
      "沾": 2641,
      "沿": 2642,
      "泄": 2643,
      "泉": 2644,
      "泊": 2645,
      "泌": 2646,
      "法": 2647,
      "泛": 2648,
      "泞": 2649,
      "泡": 2650,
      "波": 2651,
      "泣": 2652,
      "泥": 2653,
      "泧": 2654,
      "注": 2655,
      "泪": 2656,
      "泮": 2657,
      "泯": 2658,
      "泰": 2659,
      "泳": 2660,
      "泵": 2661,
      "泻": 2662,
      "泼": 2663,
      "泽": 2664,
      "洁": 2665,
      "洄": 2666,
      "洋": 2667,
      "洌": 2668,
      "洒": 2669,
      "洗": 2670,
      "洛": 2671,
      "洞": 2672,
      "津": 2673,
      "洪": 2674,
      "洱": 2675,
      "洲": 2676,
      "活": 2677,
      "洼": 2678,
      "洽": 2679,
      "派": 2680,
      "流": 2681,
      "浃": 2682,
      "浅": 2683,
      "浆": 2684,
      "浇": 2685,
      "浊": 2686,
      "测": 2687,
      "济": 2688,
      "浏": 2689,
      "浑": 2690,
      "浓": 2691,
      "浙": 2692,
      "浣": 2693,
      "浦": 2694,
      "浩": 2695,
      "浪": 2696,
      "浮": 2697,
      "浴": 2698,
      "海": 2699,
      "浸": 2700,
      "涂": 2701,
      "涅": 2702,
      "消": 2703,
      "涉": 2704,
      "涌": 2705,
      "涎": 2706,
      "涓": 2707,
      "涔": 2708,
      "涕": 2709,
      "涛": 2710,
      "涝": 2711,
      "涟": 2712,
      "涡": 2713,
      "涣": 2714,
      "涤": 2715,
      "润": 2716,
      "涧": 2717,
      "涨": 2718,
      "涩": 2719,
      "涮": 2720,
      "涯": 2721,
      "液": 2722,
      "涵": 2723,
      "涸": 2724,
      "淀": 2725,
      "淅": 2726,
      "淆": 2727,
      "淇": 2728,
      "淋": 2729,
      "淌": 2730,
      "淑": 2731,
      "淘": 2732,
      "淙": 2733,
      "淡": 2734,
      "淤": 2735,
      "淦": 2736,
      "淫": 2737,
      "深": 2738,
      "混": 2739,
      "淹": 2740,
      "添": 2741,
      "清": 2742,
      "渊": 2743,
      "渍": 2744,
      "渎": 2745,
      "渐": 2746,
      "渔": 2747,
      "渗": 2748,
      "渠": 2749,
      "渡": 2750,
      "渣": 2751,
      "渤": 2752,
      "温": 2753,
      "港": 2754,
      "渲": 2755,
      "渴": 2756,
      "游": 2757,
      "渺": 2758,
      "湃": 2759,
      "湍": 2760,
      "湖": 2761,
      "湘": 2762,
      "湛": 2763,
      "湾": 2764,
      "湿": 2765,
      "溃": 2766,
      "溅": 2767,
      "溉": 2768,
      "溏": 2769,
      "源": 2770,
      "溜": 2771,
      "溢": 2772,
      "溪": 2773,
      "溫": 2774,
      "溯": 2775,
      "溴": 2776,
      "溶": 2777,
      "溺": 2778,
      "滋": 2779,
      "滑": 2780,
      "滓": 2781,
      "滔": 2782,
      "滚": 2783,
      "滞": 2784,
      "满": 2785,
      "滤": 2786,
      "滥": 2787,
      "滩": 2788,
      "滴": 2789,
      "漂": 2790,
      "漆": 2791,
      "漉": 2792,
      "漏": 2793,
      "漓": 2794,
      "演": 2795,
      "漠": 2796,
      "漩": 2797,
      "漪": 2798,
      "漫": 2799,
      "漱": 2800,
      "漾": 2801,
      "潇": 2802,
      "潘": 2803,
      "潜": 2804,
      "潦": 2805,
      "潭": 2806,
      "潮": 2807,
      "潴": 2808,
      "潺": 2809,
      "澄": 2810,
      "澈": 2811,
      "澎": 2812,
      "澜": 2813,
      "澡": 2814,
      "澳": 2815,
      "激": 2816,
      "濒": 2817,
      "濡": 2818,
      "瀑": 2819,
      "瀚": 2820,
      "灌": 2821,
      "火": 2822,
      "灭": 2823,
      "灯": 2824,
      "灰": 2825,
      "灵": 2826,
      "灶": 2827,
      "灸": 2828,
      "灼": 2829,
      "灾": 2830,
      "灿": 2831,
      "炉": 2832,
      "炊": 2833,
      "炎": 2834,
      "炒": 2835,
      "炕": 2836,
      "炖": 2837,
      "炙": 2838,
      "炫": 2839,
      "炬": 2840,
      "炭": 2841,
      "炮": 2842,
      "炳": 2843,
      "炸": 2844,
      "点": 2845,
      "炼": 2846,
      "炽": 2847,
      "烁": 2848,
      "烂": 2849,
      "烈": 2850,
      "烊": 2851,
      "烘": 2852,
      "烙": 2853,
      "烛": 2854,
      "烟": 2855,
      "烤": 2856,
      "烦": 2857,
      "烧": 2858,
      "烩": 2859,
      "烫": 2860,
      "烬": 2861,
      "热": 2862,
      "烯": 2863,
      "烷": 2864,
      "烹": 2865,
      "焉": 2866,
      "焊": 2867,
      "焐": 2868,
      "焕": 2869,
      "焖": 2870,
      "焗": 2871,
      "焙": 2872,
      "焚": 2873,
      "焦": 2874,
      "焰": 2875,
      "然": 2876,
      "煌": 2877,
      "煎": 2878,
      "煞": 2879,
      "煤": 2880,
      "照": 2881,
      "煨": 2882,
      "煮": 2883,
      "煲": 2884,
      "煽": 2885,
      "熄": 2886,
      "熊": 2887,
      "熏": 2888,
      "熔": 2889,
      "熟": 2890,
      "熠": 2891,
      "熨": 2892,
      "熬": 2893,
      "熵": 2894,
      "燃": 2895,
      "燎": 2896,
      "燕": 2897,
      "燥": 2898,
      "爆": 2899,
      "爪": 2900,
      "爬": 2901,
      "爱": 2902,
      "爵": 2903,
      "父": 2904,
      "爷": 2905,
      "爸": 2906,
      "爹": 2907,
      "爽": 2908,
      "片": 2909,
      "版": 2910,
      "牌": 2911,
      "牒": 2912,
      "牙": 2913,
      "牛": 2914,
      "牡": 2915,
      "牢": 2916,
      "牧": 2917,
      "物": 2918,
      "牲": 2919,
      "牵": 2920,
      "特": 2921,
      "牺": 2922,
      "犀": 2923,
      "犁": 2924,
      "犄": 2925,
      "犊": 2926,
      "犒": 2927,
      "犟": 2928,
      "犬": 2929,
      "犯": 2930,
      "状": 2931,
      "犹": 2932,
      "狀": 2933,
      "狂": 2934,
      "狈": 2935,
      "狍": 2936,
      "狐": 2937,
      "狗": 2938,
      "狙": 2939,
      "狠": 2940,
      "狡": 2941,
      "狩": 2942,
      "独": 2943,
      "狭": 2944,
      "狮": 2945,
      "狱": 2946,
      "狸": 2947,
      "狼": 2948,
      "猎": 2949,
      "猕": 2950,
      "猖": 2951,
      "猛": 2952,
      "猜": 2953,
      "猝": 2954,
      "猥": 2955,
      "猩": 2956,
      "猪": 2957,
      "猫": 2958,
      "猬": 2959,
      "献": 2960,
      "猴": 2961,
      "猾": 2962,
      "猿": 2963,
      "獒": 2964,
      "獗": 2965,
      "獠": 2966,
      "獭": 2967,
      "獴": 2968,
      "玄": 2969,
      "率": 2970,
      "玉": 2971,
      "王": 2972,
      "玛": 2973,
      "玟": 2974,
      "玩": 2975,
      "玫": 2976,
      "环": 2977,
      "现": 2978,
      "玲": 2979,
      "玳": 2980,
      "玺": 2981,
      "玻": 2982,
      "珀": 2983,
      "珈": 2984,
      "珊": 2985,
      "珍": 2986,
      "珐": 2987,
      "珠": 2988,
      "班": 2989,
      "現": 2990,
      "球": 2991,
      "琅": 2992,
      "理": 2993,
      "琐": 2994,
      "琢": 2995,
      "琥": 2996,
      "琦": 2997,
      "琴": 2998,
      "琵": 2999,
      "琶": 3000,
      "琼": 3001,
      "瑁": 3002,
      "瑕": 3003,
      "瑚": 3004,
      "瑜": 3005,
      "瑞": 3006,
      "瑟": 3007,
      "瑰": 3008,
      "瑶": 3009,
      "璀": 3010,
      "璃": 3011,
      "璋": 3012,
      "璞": 3013,
      "璧": 3014,
      "璨": 3015,
      "瓜": 3016,
      "瓢": 3017,
      "瓣": 3018,
      "瓦": 3019,
      "瓶": 3020,
      "瓷": 3021,
      "甄": 3022,
      "甘": 3023,
      "甚": 3024,
      "甜": 3025,
      "生": 3026,
      "甥": 3027,
      "用": 3028,
      "甩": 3029,
      "甫": 3030,
      "甭": 3031,
      "田": 3032,
      "由": 3033,
      "甲": 3034,
      "申": 3035,
      "电": 3036,
      "男": 3037,
      "甸": 3038,
      "画": 3039,
      "甾": 3040,
      "畅": 3041,
      "畊": 3042,
      "界": 3043,
      "畏": 3044,
      "畔": 3045,
      "留": 3046,
      "畜": 3047,
      "略": 3048,
      "番": 3049,
      "畴": 3050,
      "畸": 3051,
      "疆": 3052,
      "疏": 3053,
      "疑": 3054,
      "疗": 3055,
      "疙": 3056,
      "疚": 3057,
      "疝": 3058,
      "疡": 3059,
      "疤": 3060,
      "疥": 3061,
      "疫": 3062,
      "疮": 3063,
      "疯": 3064,
      "疱": 3065,
      "疲": 3066,
      "疵": 3067,
      "疸": 3068,
      "疹": 3069,
      "疼": 3070,
      "疾": 3071,
      "痂": 3072,
      "病": 3073,
      "症": 3074,
      "痉": 3075,
      "痊": 3076,
      "痒": 3077,
      "痔": 3078,
      "痕": 3079,
      "痘": 3080,
      "痛": 3081,
      "痣": 3082,
      "痤": 3083,
      "痧": 3084,
      "痨": 3085,
      "痪": 3086,
      "痫": 3087,
      "痰": 3088,
      "痱": 3089,
      "痴": 3090,
      "痹": 3091,
      "痿": 3092,
      "瘀": 3093,
      "瘁": 3094,
      "瘆": 3095,
      "瘌": 3096,
      "瘘": 3097,
      "瘙": 3098,
      "瘠": 3099,
      "瘢": 3100,
      "瘤": 3101,
      "瘦": 3102,
      "瘩": 3103,
      "瘪": 3104,
      "瘫": 3105,
      "瘸": 3106,
      "瘾": 3107,
      "癇": 3108,
      "癌": 3109,
      "癔": 3110,
      "癖": 3111,
      "癞": 3112,
      "癣": 3113,
      "癫": 3114,
      "登": 3115,
      "發": 3116,
      "白": 3117,
      "百": 3118,
      "皂": 3119,
      "的": 3120,
      "皆": 3121,
      "皇": 3122,
      "皎": 3123,
      "皮": 3124,
      "皱": 3125,
      "皲": 3126,
      "皿": 3127,
      "盂": 3128,
      "盆": 3129,
      "盈": 3130,
      "益": 3131,
      "盏": 3132,
      "盐": 3133,
      "监": 3134,
      "盒": 3135,
      "盔": 3136,
      "盖": 3137,
      "盗": 3138,
      "盘": 3139,
      "盛": 3140,
      "盟": 3141,
      "目": 3142,
      "盯": 3143,
      "盲": 3144,
      "直": 3145,
      "相": 3146,
      "盹": 3147,
      "盼": 3148,
      "盾": 3149,
      "省": 3150,
      "眉": 3151,
      "看": 3152,
      "真": 3153,
      "眠": 3154,
      "眨": 3155,
      "眩": 3156,
      "眯": 3157,
      "眵": 3158,
      "眶": 3159,
      "眷": 3160,
      "眸": 3161,
      "眺": 3162,
      "眼": 3163,
      "着": 3164,
      "睁": 3165,
      "睑": 3166,
      "睛": 3167,
      "睡": 3168,
      "督": 3169,
      "睦": 3170,
      "睫": 3171,
      "睬": 3172,
      "睹": 3173,
      "睾": 3174,
      "瞄": 3175,
      "瞅": 3176,
      "瞌": 3177,
      "瞎": 3178,
      "瞑": 3179,
      "瞒": 3180,
      "瞟": 3181,
      "瞥": 3182,
      "瞧": 3183,
      "瞩": 3184,
      "瞪": 3185,
      "瞬": 3186,
      "瞭": 3187,
      "瞳": 3188,
      "瞻": 3189,
      "瞼": 3190,
      "矇": 3191,
      "矍": 3192,
      "矗": 3193,
      "矛": 3194,
      "矜": 3195,
      "矢": 3196,
      "矣": 3197,
      "知": 3198,
      "矩": 3199,
      "矫": 3200,
      "短": 3201,
      "矮": 3202,
      "石": 3203,
      "矶": 3204,
      "矿": 3205,
      "码": 3206,
      "砂": 3207,
      "砌": 3208,
      "砍": 3209,
      "砒": 3210,
      "研": 3211,
      "砖": 3212,
      "砝": 3213,
      "砣": 3214,
      "砥": 3215,
      "砧": 3216,
      "砰": 3217,
      "破": 3218,
      "砸": 3219,
      "砾": 3220,
      "础": 3221,
      "硅": 3222,
      "硌": 3223,
      "硕": 3224,
      "硝": 3225,
      "硫": 3226,
      "硬": 3227,
      "确": 3228,
      "碇": 3229,
      "碉": 3230,
      "碌": 3231,
      "碍": 3232,
      "碎": 3233,
      "碑": 3234,
      "碗": 3235,
      "碘": 3236,
      "碟": 3237,
      "碧": 3238,
      "碰": 3239,
      "碱": 3240,
      "碳": 3241,
      "碴": 3242,
      "碾": 3243,
      "磁": 3244,
      "磅": 3245,
      "磐": 3246,
      "磕": 3247,
      "磨": 3248,
      "磷": 3249,
      "磺": 3250,
      "礁": 3251,
      "示": 3252,
      "礼": 3253,
      "社": 3254,
      "祈": 3255,
      "祖": 3256,
      "祛": 3257,
      "祜": 3258,
      "祝": 3259,
      "神": 3260,
      "祟": 3261,
      "祥": 3262,
      "票": 3263,
      "祭": 3264,
      "祷": 3265,
      "祸": 3266,
      "禀": 3267,
      "禁": 3268,
      "禄": 3269,
      "禅": 3270,
      "福": 3271,
      "禹": 3272,
      "离": 3273,
      "禽": 3274,
      "秀": 3275,
      "私": 3276,
      "秃": 3277,
      "秋": 3278,
      "种": 3279,
      "科": 3280,
      "秒": 3281,
      "秘": 3282,
      "租": 3283,
      "秤": 3284,
      "秦": 3285,
      "秧": 3286,
      "秩": 3287,
      "积": 3288,
      "称": 3289,
      "移": 3290,
      "稀": 3291,
      "程": 3292,
      "稍": 3293,
      "税": 3294,
      "稚": 3295,
      "稠": 3296,
      "稣": 3297,
      "稳": 3298,
      "稻": 3299,
      "稼": 3300,
      "稽": 3301,
      "稿": 3302,
      "穆": 3303,
      "穗": 3304,
      "穴": 3305,
      "究": 3306,
      "穷": 3307,
      "穹": 3308,
      "空": 3309,
      "穿": 3310,
      "突": 3311,
      "窃": 3312,
      "窄": 3313,
      "窍": 3314,
      "窑": 3315,
      "窒": 3316,
      "窖": 3317,
      "窗": 3318,
      "窘": 3319,
      "窜": 3320,
      "窝": 3321,
      "窟": 3322,
      "窣": 3323,
      "窥": 3324,
      "窦": 3325,
      "窸": 3326,
      "窿": 3327,
      "立": 3328,
      "竖": 3329,
      "站": 3330,
      "竞": 3331,
      "竟": 3332,
      "章": 3333,
      "竣": 3334,
      "童": 3335,
      "竭": 3336,
      "端": 3337,
      "竹": 3338,
      "竺": 3339,
      "竿": 3340,
      "笃": 3341,
      "笆": 3342,
      "笈": 3343,
      "笋": 3344,
      "笑": 3345,
      "笔": 3346,
      "笙": 3347,
      "笛": 3348,
      "笠": 3349,
      "符": 3350,
      "笨": 3351,
      "第": 3352,
      "笺": 3353,
      "笼": 3354,
      "等": 3355,
      "筋": 3356,
      "筏": 3357,
      "筐": 3358,
      "筑": 3359,
      "筒": 3360,
      "答": 3361,
      "策": 3362,
      "筛": 3363,
      "筝": 3364,
      "筷": 3365,
      "筹": 3366,
      "签": 3367,
      "简": 3368,
      "箍": 3369,
      "箔": 3370,
      "箕": 3371,
      "算": 3372,
      "管": 3373,
      "箩": 3374,
      "箭": 3375,
      "箱": 3376,
      "箴": 3377,
      "節": 3378,
      "篇": 3379,
      "篑": 3380,
      "篓": 3381,
      "篝": 3382,
      "篡": 3383,
      "篮": 3384,
      "篱": 3385,
      "篷": 3386,
      "簇": 3387,
      "簌": 3388,
      "簧": 3389,
      "簸": 3390,
      "簿": 3391,
      "籁": 3392,
      "籍": 3393,
      "米": 3394,
      "类": 3395,
      "籽": 3396,
      "粉": 3397,
      "粑": 3398,
      "粒": 3399,
      "粗": 3400,
      "粘": 3401,
      "粝": 3402,
      "粤": 3403,
      "粥": 3404,
      "粪": 3405,
      "粮": 3406,
      "粱": 3407,
      "粹": 3408,
      "粼": 3409,
      "粽": 3410,
      "精": 3411,
      "糊": 3412,
      "糍": 3413,
      "糕": 3414,
      "糖": 3415,
      "糗": 3416,
      "糙": 3417,
      "糜": 3418,
      "糟": 3419,
      "糠": 3420,
      "糯": 3421,
      "系": 3422,
      "紊": 3423,
      "素": 3424,
      "索": 3425,
      "紧": 3426,
      "紫": 3427,
      "累": 3428,
      "結": 3429,
      "絮": 3430,
      "統": 3431,
      "經": 3432,
      "維": 3433,
      "網": 3434,
      "繁": 3435,
      "纖": 3436,
      "纠": 3437,
      "红": 3438,
      "纣": 3439,
      "纤": 3440,
      "约": 3441,
      "级": 3442,
      "纪": 3443,
      "纫": 3444,
      "纬": 3445,
      "纯": 3446,
      "纱": 3447,
      "纲": 3448,
      "纳": 3449,
      "纵": 3450,
      "纶": 3451,
      "纷": 3452,
      "纸": 3453,
      "纹": 3454,
      "纺": 3455,
      "纽": 3456,
      "线": 3457,
      "绀": 3458,
      "练": 3459,
      "组": 3460,
      "绅": 3461,
      "细": 3462,
      "织": 3463,
      "终": 3464,
      "绊": 3465,
      "绍": 3466,
      "绎": 3467,
      "经": 3468,
      "绑": 3469,
      "绒": 3470,
      "结": 3471,
      "绕": 3472,
      "绘": 3473,
      "给": 3474,
      "绚": 3475,
      "络": 3476,
      "绝": 3477,
      "绞": 3478,
      "统": 3479,
      "绢": 3480,
      "绣": 3481,
      "继": 3482,
      "绩": 3483,
      "绪": 3484,
      "续": 3485,
      "绯": 3486,
      "绰": 3487,
      "绳": 3488,
      "维": 3489,
      "绵": 3490,
      "绷": 3491,
      "绸": 3492,
      "综": 3493,
      "绽": 3494,
      "绿": 3495,
      "缀": 3496,
      "缅": 3497,
      "缆": 3498,
      "缉": 3499,
      "缎": 3500,
      "缓": 3501,
      "缔": 3502,
      "缕": 3503,
      "编": 3504,
      "缘": 3505,
      "缚": 3506,
      "缝": 3507,
      "缠": 3508,
      "缤": 3509,
      "缨": 3510,
      "缩": 3511,
      "缪": 3512,
      "缬": 3513,
      "缭": 3514,
      "缰": 3515,
      "缴": 3516,
      "缸": 3517,
      "缺": 3518,
      "罐": 3519,
      "网": 3520,
      "罕": 3521,
      "罗": 3522,
      "罚": 3523,
      "罡": 3524,
      "罢": 3525,
      "罩": 3526,
      "罪": 3527,
      "置": 3528,
      "署": 3529,
      "羁": 3530,
      "羊": 3531,
      "美": 3532,
      "羔": 3533,
      "羚": 3534,
      "羞": 3535,
      "羟": 3536,
      "羡": 3537,
      "群": 3538,
      "羧": 3539,
      "羹": 3540,
      "羽": 3541,
      "翁": 3542,
      "翅": 3543,
      "翔": 3544,
      "翘": 3545,
      "翠": 3546,
      "翡": 3547,
      "翩": 3548,
      "翰": 3549,
      "翱": 3550,
      "翻": 3551,
      "翼": 3552,
      "耀": 3553,
      "老": 3554,
      "考": 3555,
      "者": 3556,
      "而": 3557,
      "耍": 3558,
      "耐": 3559,
      "耕": 3560,
      "耗": 3561,
      "耙": 3562,
      "耦": 3563,
      "耳": 3564,
      "耵": 3565,
      "耶": 3566,
      "耷": 3567,
      "耸": 3568,
      "耻": 3569,
      "耽": 3570,
      "耿": 3571,
      "聆": 3572,
      "聊": 3573,
      "聋": 3574,
      "职": 3575,
      "聍": 3576,
      "聒": 3577,
      "联": 3578,
      "聘": 3579,
      "聚": 3580,
      "聪": 3581,
      "肃": 3582,
      "肆": 3583,
      "肇": 3584,
      "肉": 3585,
      "肋": 3586,
      "肌": 3587,
      "肓": 3588,
      "肖": 3589,
      "肘": 3590,
      "肚": 3591,
      "肛": 3592,
      "肝": 3593,
      "肠": 3594,
      "股": 3595,
      "肢": 3596,
      "肤": 3597,
      "肥": 3598,
      "肩": 3599,
      "肪": 3600,
      "肯": 3601,
      "肱": 3602,
      "育": 3603,
      "肴": 3604,
      "肺": 3605,
      "肽": 3606,
      "肾": 3607,
      "肿": 3608,
      "胀": 3609,
      "胁": 3610,
      "胃": 3611,
      "胆": 3612,
      "背": 3613,
      "胍": 3614,
      "胎": 3615,
      "胖": 3616,
      "胚": 3617,
      "胛": 3618,
      "胜": 3619,
      "胝": 3620,
      "胞": 3621,
      "胡": 3622,
      "胧": 3623,
      "胫": 3624,
      "胯": 3625,
      "胰": 3626,
      "胱": 3627,
      "胳": 3628,
      "胶": 3629,
      "胸": 3630,
      "胺": 3631,
      "胼": 3632,
      "能": 3633,
      "脂": 3634,
      "脆": 3635,
      "脈": 3636,
      "脉": 3637,
      "脊": 3638,
      "脏": 3639,
      "脐": 3640,
      "脑": 3641,
      "脓": 3642,
      "脖": 3643,
      "脚": 3644,
      "脯": 3645,
      "脱": 3646,
      "脲": 3647,
      "脸": 3648,
      "脾": 3649,
      "腊": 3650,
      "腋": 3651,
      "腌": 3652,
      "腐": 3653,
      "腑": 3654,
      "腓": 3655,
      "腔": 3656,
      "腕": 3657,
      "腘": 3658,
      "腥": 3659,
      "腦": 3660,
      "腩": 3661,
      "腭": 3662,
      "腮": 3663,
      "腰": 3664,
      "腱": 3665,
      "腹": 3666,
      "腺": 3667,
      "腻": 3668,
      "腾": 3669,
      "腿": 3670,
      "膀": 3671,
      "膈": 3672,
      "膊": 3673,
      "膏": 3674,
      "膘": 3675,
      "膛": 3676,
      "膜": 3677,
      "膝": 3678,
      "膦": 3679,
      "膨": 3680,
      "膳": 3681,
      "膺": 3682,
      "膻": 3683,
      "臀": 3684,
      "臂": 3685,
      "臣": 3686,
      "自": 3687,
      "臭": 3688,
      "至": 3689,
      "致": 3690,
      "臼": 3691,
      "舀": 3692,
      "舅": 3693,
      "與": 3694,
      "興": 3695,
      "舌": 3696,
      "舍": 3697,
      "舐": 3698,
      "舒": 3699,
      "舔": 3700,
      "舞": 3701,
      "舟": 3702,
      "航": 3703,
      "般": 3704,
      "舰": 3705,
      "舱": 3706,
      "舵": 3707,
      "舷": 3708,
      "船": 3709,
      "艇": 3710,
      "艘": 3711,
      "艮": 3712,
      "良": 3713,
      "艰": 3714,
      "色": 3715,
      "艳": 3716,
      "艹": 3717,
      "艺": 3718,
      "艾": 3719,
      "节": 3720,
      "芋": 3721,
      "芎": 3722,
      "芒": 3723,
      "芙": 3724,
      "芜": 3725,
      "芝": 3726,
      "芥": 3727,
      "芦": 3728,
      "芩": 3729,
      "芪": 3730,
      "芬": 3731,
      "芭": 3732,
      "芯": 3733,
      "花": 3734,
      "芳": 3735,
      "芹": 3736,
      "芽": 3737,
      "苇": 3738,
      "苍": 3739,
      "苏": 3740,
      "苓": 3741,
      "苔": 3742,
      "苗": 3743,
      "苛": 3744,
      "苞": 3745,
      "苟": 3746,
      "苣": 3747,
      "若": 3748,
      "苦": 3749,
      "苯": 3750,
      "英": 3751,
      "苷": 3752,
      "苹": 3753,
      "茁": 3754,
      "茂": 3755,
      "范": 3756,
      "茄": 3757,
      "茅": 3758,
      "茉": 3759,
      "茎": 3760,
      "茧": 3761,
      "茨": 3762,
      "茫": 3763,
      "茬": 3764,
      "茯": 3765,
      "茶": 3766,
      "茸": 3767,
      "荆": 3768,
      "草": 3769,
      "荐": 3770,
      "荒": 3771,
      "荚": 3772,
      "荞": 3773,
      "荟": 3774,
      "荡": 3775,
      "荣": 3776,
      "荤": 3777,
      "荧": 3778,
      "荨": 3779,
      "荫": 3780,
      "药": 3781,
      "荷": 3782,
      "莆": 3783,
      "莉": 3784,
      "莎": 3785,
      "莓": 3786,
      "莞": 3787,
      "莫": 3788,
      "莱": 3789,
      "莲": 3790,
      "获": 3791,
      "莹": 3792,
      "莺": 3793,
      "莽": 3794,
      "菇": 3795,
      "菊": 3796,
      "菌": 3797,
      "菜": 3798,
      "菠": 3799,
      "菩": 3800,
      "菱": 3801,
      "菲": 3802,
      "萃": 3803,
      "萄": 3804,
      "萌": 3805,
      "萎": 3806,
      "萘": 3807,
      "萜": 3808,
      "萝": 3809,
      "萤": 3810,
      "营": 3811,
      "萦": 3812,
      "萧": 3813,
      "萨": 3814,
      "萼": 3815,
      "落": 3816,
      "著": 3817,
      "葛": 3818,
      "葡": 3819,
      "董": 3820,
      "葩": 3821,
      "葫": 3822,
      "葬": 3823,
      "葱": 3824,
      "葵": 3825,
      "蒂": 3826,
      "蒎": 3827,
      "蒙": 3828,
      "蒜": 3829,
      "蒲": 3830,
      "蒸": 3831,
      "蓄": 3832,
      "蓉": 3833,
      "蓝": 3834,
      "蓬": 3835,
      "蔑": 3836,
      "蔓": 3837,
      "蔗": 3838,
      "蔚": 3839,
      "蔡": 3840,
      "蔫": 3841,
      "蔬": 3842,
      "蔷": 3843,
      "蔽": 3844,
      "蕈": 3845,
      "蕉": 3846,
      "蕊": 3847,
      "蕨": 3848,
      "蕴": 3849,
      "蕾": 3850,
      "薄": 3851,
      "薅": 3852,
      "薇": 3853,
      "薏": 3854,
      "薛": 3855,
      "薪": 3856,
      "薯": 3857,
      "薰": 3858,
      "藉": 3859,
      "藏": 3860,
      "藓": 3861,
      "藕": 3862,
      "藤": 3863,
      "藻": 3864,
      "藿": 3865,
      "蘑": 3866,
      "蘸": 3867,
      "虎": 3868,
      "虏": 3869,
      "虐": 3870,
      "虑": 3871,
      "虔": 3872,
      "處": 3873,
      "虚": 3874,
      "虫": 3875,
      "虱": 3876,
      "虹": 3877,
      "虻": 3878,
      "虽": 3879,
      "虾": 3880,
      "蚀": 3881,
      "蚁": 3882,
      "蚂": 3883,
      "蚊": 3884,
      "蚌": 3885,
      "蚓": 3886,
      "蚕": 3887,
      "蚝": 3888,
      "蚣": 3889,
      "蚤": 3890,
      "蚪": 3891,
      "蚯": 3892,
      "蛀": 3893,
      "蛆": 3894,
      "蛇": 3895,
      "蛊": 3896,
      "蛋": 3897,
      "蛎": 3898,
      "蛐": 3899,
      "蛔": 3900,
      "蛙": 3901,
      "蛛": 3902,
      "蛞": 3903,
      "蛮": 3904,
      "蛰": 3905,
      "蛲": 3906,
      "蛳": 3907,
      "蛹": 3908,
      "蛾": 3909,
      "蜀": 3910,
      "蜂": 3911,
      "蜇": 3912,
      "蜈": 3913,
      "蜉": 3914,
      "蜓": 3915,
      "蜕": 3916,
      "蜗": 3917,
      "蜘": 3918,
      "蜜": 3919,
      "蜡": 3920,
      "蜥": 3921,
      "蜴": 3922,
      "蜷": 3923,
      "蜻": 3924,
      "蝇": 3925,
      "蝈": 3926,
      "蝉": 3927,
      "蝌": 3928,
      "蝎": 3929,
      "蝓": 3930,
      "蝗": 3931,
      "蝙": 3932,
      "蝠": 3933,
      "蝣": 3934,
      "蝰": 3935,
      "蝴": 3936,
      "蝶": 3937,
      "蝾": 3938,
      "螂": 3939,
      "螃": 3940,
      "螅": 3941,
      "螈": 3942,
      "螋": 3943,
      "融": 3944,
      "螨": 3945,
      "螯": 3946,
      "螳": 3947,
      "螺": 3948,
      "蟀": 3949,
      "蟋": 3950,
      "蟑": 3951,
      "蟒": 3952,
      "蟠": 3953,
      "蟹": 3954,
      "蠕": 3955,
      "蠢": 3956,
      "蠼": 3957,
      "血": 3958,
      "衄": 3959,
      "衅": 3960,
      "行": 3961,
      "衍": 3962,
      "衔": 3963,
      "街": 3964,
      "衝": 3965,
      "衡": 3966,
      "衣": 3967,
      "补": 3968,
      "表": 3969,
      "衩": 3970,
      "衫": 3971,
      "衬": 3972,
      "衰": 3973,
      "衷": 3974,
      "袂": 3975,
      "袄": 3976,
      "袅": 3977,
      "袈": 3978,
      "袋": 3979,
      "袍": 3980,
      "袒": 3981,
      "袖": 3982,
      "袜": 3983,
      "被": 3984,
      "袭": 3985,
      "袱": 3986,
      "裁": 3987,
      "裂": 3988,
      "装": 3989,
      "裕": 3990,
      "裙": 3991,
      "裟": 3992,
      "裤": 3993,
      "裱": 3994,
      "裳": 3995,
      "裸": 3996,
      "裹": 3997,
      "褂": 3998,
      "褐": 3999,
      "褒": 4000,
      "褓": 4001,
      "褥": 4002,
      "褪": 4003,
      "褶": 4004,
      "襁": 4005,
      "襞": 4006,
      "襟": 4007,
      "西": 4008,
      "要": 4009,
      "覆": 4010,
      "覺": 4011,
      "见": 4012,
      "观": 4013,
      "规": 4014,
      "觅": 4015,
      "视": 4016,
      "览": 4017,
      "觉": 4018,
      "觑": 4019,
      "角": 4020,
      "解": 4021,
      "触": 4022,
      "言": 4023,
      "診": 4024,
      "誉": 4025,
      "誓": 4026,
      "誘": 4027,
      "調": 4028,
      "諤": 4029,
      "警": 4030,
      "議": 4031,
      "计": 4032,
      "订": 4033,
      "认": 4034,
      "讧": 4035,
      "讨": 4036,
      "让": 4037,
      "讪": 4038,
      "训": 4039,
      "议": 4040,
      "讯": 4041,
      "记": 4042,
      "讲": 4043,
      "讳": 4044,
      "讶": 4045,
      "讷": 4046,
      "许": 4047,
      "论": 4048,
      "讼": 4049,
      "讽": 4050,
      "设": 4051,
      "访": 4052,
      "诀": 4053,
      "证": 4054,
      "评": 4055,
      "诅": 4056,
      "识": 4057,
      "诈": 4058,
      "诉": 4059,
      "诊": 4060,
      "诌": 4061,
      "词": 4062,
      "译": 4063,
      "试": 4064,
      "诗": 4065,
      "诙": 4066,
      "诚": 4067,
      "话": 4068,
      "诞": 4069,
      "诠": 4070,
      "诡": 4071,
      "询": 4072,
      "该": 4073,
      "详": 4074,
      "诨": 4075,
      "诫": 4076,
      "语": 4077,
      "误": 4078,
      "诱": 4079,
      "说": 4080,
      "诵": 4081,
      "诶": 4082,
      "请": 4083,
      "诸": 4084,
      "诺": 4085,
      "读": 4086,
      "诽": 4087,
      "课": 4088,
      "谁": 4089,
      "调": 4090,
      "谅": 4091,
      "谈": 4092,
      "谊": 4093,
      "谋": 4094,
      "谍": 4095,
      "谎": 4096,
      "谐": 4097,
      "谑": 4098,
      "谓": 4099,
      "谔": 4100,
      "谙": 4101,
      "谚": 4102,
      "谛": 4103,
      "谜": 4104,
      "谢": 4105,
      "谣": 4106,
      "谦": 4107,
      "谧": 4108,
      "谨": 4109,
      "谬": 4110,
      "谭": 4111,
      "谱": 4112,
      "谴": 4113,
      "谵": 4114,
      "谷": 4115,
      "豁": 4116,
      "豆": 4117,
      "豌": 4118,
      "豚": 4119,
      "象": 4120,
      "豪": 4121,
      "豫": 4122,
      "豹": 4123,
      "豺": 4124,
      "貂": 4125,
      "貌": 4126,
      "貘": 4127,
      "責": 4128,
      "質": 4129,
      "贝": 4130,
      "贞": 4131,
      "负": 4132,
      "贡": 4133,
      "财": 4134,
      "责": 4135,
      "贤": 4136,
      "败": 4137,
      "账": 4138,
      "货": 4139,
      "质": 4140,
      "贩": 4141,
      "贪": 4142,
      "贫": 4143,
      "贬": 4144,
      "购": 4145,
      "贯": 4146,
      "贱": 4147,
      "贲": 4148,
      "贴": 4149,
      "贵": 4150,
      "贷": 4151,
      "贸": 4152,
      "费": 4153,
      "贺": 4154,
      "贼": 4155,
      "贾": 4156,
      "贿": 4157,
      "赁": 4158,
      "赂": 4159,
      "资": 4160,
      "赋": 4161,
      "赌": 4162,
      "赎": 4163,
      "赏": 4164,
      "赐": 4165,
      "赔": 4166,
      "赖": 4167,
      "赘": 4168,
      "赚": 4169,
      "赛": 4170,
      "赞": 4171,
      "赠": 4172,
      "赢": 4173,
      "赤": 4174,
      "赦": 4175,
      "赫": 4176,
      "走": 4177,
      "赴": 4178,
      "赶": 4179,
      "起": 4180,
      "趁": 4181,
      "趄": 4182,
      "超": 4183,
      "越": 4184,
      "趋": 4185,
      "趔": 4186,
      "趟": 4187,
      "趣": 4188,
      "足": 4189,
      "趴": 4190,
      "趸": 4191,
      "趾": 4192,
      "跃": 4193,
      "跌": 4194,
      "跑": 4195,
      "跖": 4196,
      "跗": 4197,
      "跛": 4198,
      "距": 4199,
      "跟": 4200,
      "跤": 4201,
      "跨": 4202,
      "跪": 4203,
      "路": 4204,
      "跳": 4205,
      "践": 4206,
      "跶": 4207,
      "跷": 4208,
      "跺": 4209,
      "踏": 4210,
      "踝": 4211,
      "踢": 4212,
      "踩": 4213,
      "踪": 4214,
      "踮": 4215,
      "踱": 4216,
      "踵": 4217,
      "踹": 4218,
      "蹂": 4219,
      "蹄": 4220,
      "蹈": 4221,
      "蹊": 4222,
      "蹋": 4223,
      "蹑": 4224,
      "蹠": 4225,
      "蹦": 4226,
      "蹬": 4227,
      "蹭": 4228,
      "蹲": 4229,
      "蹴": 4230,
      "蹶": 4231,
      "蹿": 4232,
      "躁": 4233,
      "躏": 4234,
      "身": 4235,
      "躬": 4236,
      "躯": 4237,
      "躲": 4238,
      "躺": 4239,
      "车": 4240,
      "轧": 4241,
      "轨": 4242,
      "转": 4243,
      "轮": 4244,
      "软": 4245,
      "轰": 4246,
      "轱": 4247,
      "轴": 4248,
      "轻": 4249,
      "载": 4250,
      "轿": 4251,
      "较": 4252,
      "辄": 4253,
      "辅": 4254,
      "辆": 4255,
      "辈": 4256,
      "辉": 4257,
      "辐": 4258,
      "辑": 4259,
      "输": 4260,
      "辖": 4261,
      "辗": 4262,
      "辘": 4263,
      "辙": 4264,
      "辛": 4265,
      "辜": 4266,
      "辞": 4267,
      "辟": 4268,
      "辣": 4269,
      "辨": 4270,
      "辩": 4271,
      "辫": 4272,
      "辰": 4273,
      "辱": 4274,
      "边": 4275,
      "辽": 4276,
      "达": 4277,
      "迁": 4278,
      "迂": 4279,
      "迅": 4280,
      "过": 4281,
      "迈": 4282,
      "迎": 4283,
      "运": 4284,
      "近": 4285,
      "返": 4286,
      "还": 4287,
      "这": 4288,
      "进": 4289,
      "远": 4290,
      "违": 4291,
      "连": 4292,
      "迟": 4293,
      "迥": 4294,
      "迦": 4295,
      "迪": 4296,
      "迫": 4297,
      "迭": 4298,
      "述": 4299,
      "迷": 4300,
      "迸": 4301,
      "迹": 4302,
      "追": 4303,
      "退": 4304,
      "送": 4305,
      "适": 4306,
      "逃": 4307,
      "逅": 4308,
      "逆": 4309,
      "选": 4310,
      "逊": 4311,
      "透": 4312,
      "逐": 4313,
      "递": 4314,
      "途": 4315,
      "逗": 4316,
      "通": 4317,
      "逛": 4318,
      "逝": 4319,
      "逞": 4320,
      "速": 4321,
      "造": 4322,
      "逢": 4323,
      "逮": 4324,
      "逸": 4325,
      "逻": 4326,
      "逼": 4327,
      "逾": 4328,
      "遁": 4329,
      "遂": 4330,
      "遇": 4331,
      "運": 4332,
      "遍": 4333,
      "遏": 4334,
      "遐": 4335,
      "遑": 4336,
      "道": 4337,
      "遗": 4338,
      "遛": 4339,
      "遢": 4340,
      "遣": 4341,
      "遥": 4342,
      "遨": 4343,
      "遭": 4344,
      "遮": 4345,
      "遵": 4346,
      "避": 4347,
      "邀": 4348,
      "邂": 4349,
      "邃": 4350,
      "邋": 4351,
      "邓": 4352,
      "那": 4353,
      "邦": 4354,
      "邪": 4355,
      "邮": 4356,
      "邵": 4357,
      "邻": 4358,
      "郁": 4359,
      "郊": 4360,
      "郎": 4361,
      "郑": 4362,
      "部": 4363,
      "郭": 4364,
      "都": 4365,
      "鄙": 4366,
      "酋": 4367,
      "酌": 4368,
      "配": 4369,
      "酐": 4370,
      "酒": 4371,
      "酗": 4372,
      "酚": 4373,
      "酝": 4374,
      "酞": 4375,
      "酣": 4376,
      "酥": 4377,
      "酪": 4378,
      "酬": 4379,
      "酮": 4380,
      "酯": 4381,
      "酰": 4382,
      "酱": 4383,
      "酵": 4384,
      "酶": 4385,
      "酷": 4386,
      "酸": 4387,
      "酿": 4388,
      "醇": 4389,
      "醉": 4390,
      "醋": 4391,
      "醒": 4392,
      "醛": 4393,
      "醫": 4394,
      "醺": 4395,
      "采": 4396,
      "釉": 4397,
      "释": 4398,
      "里": 4399,
      "重": 4400,
      "野": 4401,
      "量": 4402,
      "金": 4403,
      "釜": 4404,
      "鉴": 4405,
      "銮": 4406,
      "鐘": 4407,
      "鑑": 4408,
      "针": 4409,
      "钉": 4410,
      "钓": 4411,
      "钙": 4412,
      "钛": 4413,
      "钝": 4414,
      "钞": 4415,
      "钟": 4416,
      "钠": 4417,
      "钡": 4418,
      "钢": 4419,
      "钥": 4420,
      "钦": 4421,
      "钩": 4422,
      "钮": 4423,
      "钱": 4424,
      "钳": 4425,
      "钴": 4426,
      "钵": 4427,
      "钻": 4428,
      "钼": 4429,
      "钾": 4430,
      "铁": 4431,
      "铂": 4432,
      "铃": 4433,
      "铄": 4434,
      "铅": 4435,
      "铆": 4436,
      "铐": 4437,
      "铛": 4438,
      "铜": 4439,
      "铝": 4440,
      "铠": 4441,
      "铬": 4442,
      "铭": 4443,
      "铰": 4444,
      "铲": 4445,
      "铵": 4446,
      "银": 4447,
      "铸": 4448,
      "铺": 4449,
      "链": 4450,
      "销": 4451,
      "锁": 4452,
      "锂": 4453,
      "锃": 4454,
      "锄": 4455,
      "锅": 4456,
      "锈": 4457,
      "锉": 4458,
      "锋": 4459,
      "锌": 4460,
      "锏": 4461,
      "锐": 4462,
      "错": 4463,
      "锚": 4464,
      "锡": 4465,
      "锢": 4466,
      "锣": 4467,
      "锤": 4468,
      "锥": 4469,
      "锦": 4470,
      "键": 4471,
      "锯": 4472,
      "锰": 4473,
      "锵": 4474,
      "锻": 4475,
      "镀": 4476,
      "镁": 4477,
      "镂": 4478,
      "镇": 4479,
      "镊": 4480,
      "镑": 4481,
      "镖": 4482,
      "镜": 4483,
      "镫": 4484,
      "镰": 4485,
      "镲": 4486,
      "镶": 4487,
      "长": 4488,
      "間": 4489,
      "门": 4490,
      "闩": 4491,
      "闪": 4492,
      "闭": 4493,
      "问": 4494,
      "闯": 4495,
      "闲": 4496,
      "间": 4497,
      "闷": 4498,
      "闸": 4499,
      "闹": 4500,
      "闺": 4501,
      "闻": 4502,
      "阀": 4503,
      "阁": 4504,
      "阂": 4505,
      "阅": 4506,
      "阈": 4507,
      "阎": 4508,
      "阐": 4509,
      "阑": 4510,
      "阔": 4511,
      "阖": 4512,
      "阙": 4513,
      "队": 4514,
      "阱": 4515,
      "防": 4516,
      "阳": 4517,
      "阴": 4518,
      "阵": 4519,
      "阶": 4520,
      "阻": 4521,
      "阿": 4522,
      "陀": 4523,
      "附": 4524,
      "际": 4525,
      "陆": 4526,
      "陈": 4527,
      "陋": 4528,
      "陌": 4529,
      "降": 4530,
      "限": 4531,
      "陛": 4532,
      "陡": 4533,
      "院": 4534,
      "除": 4535,
      "陨": 4536,
      "险": 4537,
      "陪": 4538,
      "陵": 4539,
      "陶": 4540,
      "陷": 4541,
      "隅": 4542,
      "隆": 4543,
      "隋": 4544,
      "随": 4545,
      "隐": 4546,
      "隔": 4547,
      "隙": 4548,
      "障": 4549,
      "隧": 4550,
      "隶": 4551,
      "难": 4552,
      "雀": 4553,
      "雁": 4554,
      "雄": 4555,
      "雅": 4556,
      "集": 4557,
      "雇": 4558,
      "雌": 4559,
      "雍": 4560,
      "雏": 4561,
      "雕": 4562,
      "雨": 4563,
      "雪": 4564,
      "雳": 4565,
      "零": 4566,
      "雷": 4567,
      "雹": 4568,
      "雾": 4569,
      "需": 4570,
      "霄": 4571,
      "震": 4572,
      "霉": 4573,
      "霍": 4574,
      "霓": 4575,
      "霖": 4576,
      "霜": 4577,
      "霞": 4578,
      "露": 4579,
      "霸": 4580,
      "霹": 4581,
      "霾": 4582,
      "青": 4583,
      "靓": 4584,
      "静": 4585,
      "靛": 4586,
      "非": 4587,
      "靠": 4588,
      "靡": 4589,
      "面": 4590,
      "靥": 4591,
      "革": 4592,
      "靴": 4593,
      "靶": 4594,
      "鞋": 4595,
      "鞍": 4596,
      "鞘": 4597,
      "鞠": 4598,
      "鞣": 4599,
      "鞭": 4600,
      "韦": 4601,
      "韧": 4602,
      "韩": 4603,
      "韭": 4604,
      "音": 4605,
      "韵": 4606,
      "響": 4607,
      "類": 4608,
      "页": 4609,
      "顶": 4610,
      "项": 4611,
      "顺": 4612,
      "须": 4613,
      "顽": 4614,
      "顾": 4615,
      "顿": 4616,
      "颁": 4617,
      "颂": 4618,
      "预": 4619,
      "颅": 4620,
      "领": 4621,
      "颇": 4622,
      "颈": 4623,
      "颊": 4624,
      "颌": 4625,
      "颏": 4626,
      "频": 4627,
      "颓": 4628,
      "颖": 4629,
      "颗": 4630,
      "题": 4631,
      "颚": 4632,
      "颜": 4633,
      "额": 4634,
      "颞": 4635,
      "颠": 4636,
      "颤": 4637,
      "颧": 4638,
      "风": 4639,
      "飒": 4640,
      "飕": 4641,
      "飘": 4642,
      "飙": 4643,
      "飚": 4644,
      "飞": 4645,
      "食": 4646,
      "飢": 4647,
      "餐": 4648,
      "館": 4649,
      "饥": 4650,
      "饨": 4651,
      "饪": 4652,
      "饭": 4653,
      "饮": 4654,
      "饯": 4655,
      "饰": 4656,
      "饱": 4657,
      "饲": 4658,
      "饴": 4659,
      "饵": 4660,
      "饶": 4661,
      "饺": 4662,
      "饼": 4663,
      "饽": 4664,
      "饿": 4665,
      "馁": 4666,
      "馄": 4667,
      "馅": 4668,
      "馆": 4669,
      "馈": 4670,
      "馊": 4671,
      "馋": 4672,
      "馏": 4673,
      "馒": 4674,
      "首": 4675,
      "香": 4676,
      "馨": 4677,
      "马": 4678,
      "驮": 4679,
      "驯": 4680,
      "驰": 4681,
      "驱": 4682,
      "驳": 4683,
      "驴": 4684,
      "驶": 4685,
      "驹": 4686,
      "驻": 4687,
      "驼": 4688,
      "驾": 4689,
      "驿": 4690,
      "骂": 4691,
      "骄": 4692,
      "骆": 4693,
      "骇": 4694,
      "验": 4695,
      "骏": 4696,
      "骑": 4697,
      "骗": 4698,
      "骚": 4699,
      "骛": 4700,
      "骤": 4701,
      "骨": 4702,
      "骰": 4703,
      "骶": 4704,
      "骷": 4705,
      "骸": 4706,
      "骺": 4707,
      "骼": 4708,
      "髁": 4709,
      "髂": 4710,
      "髅": 4711,
      "髋": 4712,
      "髓": 4713,
      "體": 4714,
      "高": 4715,
      "髦": 4716,
      "鬓": 4717,
      "鬟": 4718,
      "鬣": 4719,
      "鬼": 4720,
      "魁": 4721,
      "魂": 4722,
      "魄": 4723,
      "魅": 4724,
      "魇": 4725,
      "魉": 4726,
      "魍": 4727,
      "魑": 4728,
      "魔": 4729,
      "鮟": 4730,
      "鱇": 4731,
      "鱼": 4732,
      "鱿": 4733,
      "鲁": 4734,
      "鲜": 4735,
      "鲤": 4736,
      "鲨": 4737,
      "鲫": 4738,
      "鲱": 4739,
      "鲸": 4740,
      "鳃": 4741,
      "鳄": 4742,
      "鳅": 4743,
      "鳍": 4744,
      "鳔": 4745,
      "鳗": 4746,
      "鳚": 4747,
      "鳞": 4748,
      "鸟": 4749,
      "鸠": 4750,
      "鸡": 4751,
      "鸢": 4752,
      "鸣": 4753,
      "鸥": 4754,
      "鸦": 4755,
      "鸩": 4756,
      "鸭": 4757,
      "鸯": 4758,
      "鸱": 4759,
      "鸳": 4760,
      "鸵": 4761,
      "鸸": 4762,
      "鸽": 4763,
      "鸿": 4764,
      "鹂": 4765,
      "鹅": 4766,
      "鹈": 4767,
      "鹉": 4768,
      "鹊": 4769,
      "鹋": 4770,
      "鹌": 4771,
      "鹑": 4772,
      "鹕": 4773,
      "鹤": 4774,
      "鹦": 4775,
      "鹭": 4776,
      "鹰": 4777,
      "鹳": 4778,
      "鹿": 4779,
      "麒": 4780,
      "麟": 4781,
      "麦": 4782,
      "麸": 4783,
      "麻": 4784,
      "黄": 4785,
      "黍": 4786,
      "黎": 4787,
      "黏": 4788,
      "黑": 4789,
      "默": 4790,
      "黛": 4791,
      "黠": 4792,
      "黢": 4793,
      "黯": 4794,
      "鼎": 4795,
      "鼓": 4796,
      "鼠": 4797,
      "鼩": 4798,
      "鼬": 4799,
      "鼱": 4800,
      "鼹": 4801,
      "鼻": 4802,
      "鼾": 4803,
      "齁": 4804,
      "齐": 4805,
      "齿": 4806,
      "龄": 4807,
      "龅": 4808,
      "龇": 4809,
      "龈": 4810,
      "龋": 4811,
      "龘": 4812,
      "龙": 4813,
      "龟": 4814,
      "ꉂ": 4815,
      "ꏿ": 4816,
      "ꐦ": 4817,
      "꒦": 4818,
      "꒪": 4819,
      "꒰": 4820,
      "꒱": 4821,
      "️": 4822,
      "︵": 4823,
      "︶": 4824,
      "︿": 4825,
      "﹃": 4826,
      "﹏": 4827,
      "ﻌ": 4828,
      "ﻭ": 4829,
      "﻿": 4830,
      "！": 4831,
      "＂": 4832,
      "＃": 4833,
      "（": 4834,
      "）": 4835,
      "＋": 4836,
      "，": 4837,
      "／": 4838,
      "：": 4839,
      "；": 4840,
      "＜": 4841,
      "＝": 4842,
      "＞": 4843,
      "？": 4844,
      "Ａ": 4845,
      "Ｍ": 4846,
      "Ｓ": 4847,
      "Ｔ": 4848,
      "［": 4849,
      "＼": 4850,
      "］": 4851,
      "＾": 4852,
      "＿": 4853,
      "｀": 4854,
      "｜": 4855,
      "～": 4856,
      "｡": 4857,
      "･": 4858,
      "ﾉ": 4859,
      "ﾞ": 4860,
      "ﾟ": 4861,
      "￣": 4862,
      "￥": 4863,
      "🀄": 4864,
      "🃏": 4865,
      "🅰": 4866,
      "🅱": 4867,
      "🅲": 4868,
      "🅳": 4869,
      "🆒": 4870,
      "🆘": 4871,
      "🆙": 4872,
      "🇨": 4873,
      "🇪": 4874,
      "🇫": 4875,
      "🇯": 4876,
      "🇳": 4877,
      "🇵": 4878,
      "🇷": 4879,
      "🇸": 4880,
      "🇺": 4881,
      "🉑": 4882,
      "🌀": 4883,
      "🌃": 4884,
      "🌄": 4885,
      "🌅": 4886,
      "🌆": 4887,
      "🌇": 4888,
      "🌈": 4889,
      "🌊": 4890,
      "🌋": 4891,
      "🌌": 4892,
      "🌍": 4893,
      "🌏": 4894,
      "🌑": 4895,
      "🌕": 4896,
      "🌙": 4897,
      "🌚": 4898,
      "🌛": 4899,
      "🌜": 4900,
      "🌝": 4901,
      "🌞": 4902,
      "🌟": 4903,
      "🌠": 4904,
      "🌡": 4905,
      "🌤": 4906,
      "🌥": 4907,
      "🌧": 4908,
      "🌨": 4909,
      "🌩": 4910,
      "🌪": 4911,
      "🌫": 4912,
      "🌬": 4913,
      "🌭": 4914,
      "🌮": 4915,
      "🌯": 4916,
      "🌰": 4917,
      "🌱": 4918,
      "🌲": 4919,
      "🌳": 4920,
      "🌴": 4921,
      "🌵": 4922,
      "🌶": 4923,
      "🌷": 4924,
      "🌸": 4925,
      "🌹": 4926,
      "🌺": 4927,
      "🌻": 4928,
      "🌼": 4929,
      "🌾": 4930,
      "🌿": 4931,
      "🍀": 4932,
      "🍂": 4933,
      "🍃": 4934,
      "🍄": 4935,
      "🍅": 4936,
      "🍆": 4937,
      "🍇": 4938,
      "🍉": 4939,
      "🍊": 4940,
      "🍋": 4941,
      "🍌": 4942,
      "🍍": 4943,
      "🍎": 4944,
      "🍐": 4945,
      "🍑": 4946,
      "🍒": 4947,
      "🍓": 4948,
      "🍔": 4949,
      "🍕": 4950,
      "🍖": 4951,
      "🍗": 4952,
      "🍙": 4953,
      "🍚": 4954,
      "🍛": 4955,
      "🍜": 4956,
      "🍝": 4957,
      "🍞": 4958,
      "🍟": 4959,
      "🍠": 4960,
      "🍡": 4961,
      "🍢": 4962,
      "🍣": 4963,
      "🍤": 4964,
      "🍦": 4965,
      "🍩": 4966,
      "🍪": 4967,
      "🍫": 4968,
      "🍬": 4969,
      "🍭": 4970,
      "🍮": 4971,
      "🍯": 4972,
      "🍰": 4973,
      "🍱": 4974,
      "🍲": 4975,
      "🍳": 4976,
      "🍵": 4977,
      "🍶": 4978,
      "🍷": 4979,
      "🍹": 4980,
      "🍺": 4981,
      "🍻": 4982,
      "🍼": 4983,
      "🍽": 4984,
      "🍾": 4985,
      "🍿": 4986,
      "🎀": 4987,
      "🎁": 4988,
      "🎂": 4989,
      "🎃": 4990,
      "🎆": 4991,
      "🎇": 4992,
      "🎈": 4993,
      "🎉": 4994,
      "🎊": 4995,
      "🎒": 4996,
      "🎓": 4997,
      "🎖": 4998,
      "🎙": 4999,
      "🎛": 5000,
      "🎞": 5001,
      "🎟": 5002,
      "🎠": 5003,
      "🎡": 5004,
      "🎢": 5005,
      "🎣": 5006,
      "🎤": 5007,
      "🎥": 5008,
      "🎧": 5009,
      "🎨": 5010,
      "🎩": 5011,
      "🎪": 5012,
      "🎫": 5013,
      "🎬": 5014,
      "🎭": 5015,
      "🎮": 5016,
      "🎯": 5017,
      "🎰": 5018,
      "🎲": 5019,
      "🎵": 5020,
      "🎶": 5021,
      "🎷": 5022,
      "🎸": 5023,
      "🎹": 5024,
      "🎺": 5025,
      "🎻": 5026,
      "🎾": 5027,
      "🏀": 5028,
      "🏁": 5029,
      "🏃": 5030,
      "🏅": 5031,
      "🏆": 5032,
      "🏊": 5033,
      "🏋": 5034,
      "🏍": 5035,
      "🏎": 5036,
      "🏔": 5037,
      "🏕": 5038,
      "🏖": 5039,
      "🏗": 5040,
      "🏙": 5041,
      "🏚": 5042,
      "🏜": 5043,
      "🏠": 5044,
      "🏥": 5045,
      "🏦": 5046,
      "🏧": 5047,
      "🏨": 5048,
      "🏪": 5049,
      "🏫": 5050,
      "🏭": 5051,
      "🏰": 5052,
      "🏸": 5053,
      "🏻": 5054,
      "🏼": 5055,
      "🐂": 5056,
      "🐃": 5057,
      "🐄": 5058,
      "🐆": 5059,
      "🐇": 5060,
      "🐈": 5061,
      "🐉": 5062,
      "🐊": 5063,
      "🐋": 5064,
      "🐌": 5065,
      "🐍": 5066,
      "🐎": 5067,
      "🐏": 5068,
      "🐑": 5069,
      "🐒": 5070,
      "🐓": 5071,
      "🐔": 5072,
      "🐕": 5073,
      "🐘": 5074,
      "🐙": 5075,
      "🐛": 5076,
      "🐜": 5077,
      "🐝": 5078,
      "🐟": 5079,
      "🐠": 5080,
      "🐡": 5081,
      "🐢": 5082,
      "🐣": 5083,
      "🐤": 5084,
      "🐥": 5085,
      "🐦": 5086,
      "🐧": 5087,
      "🐨": 5088,
      "🐪": 5089,
      "🐫": 5090,
      "🐬": 5091,
      "🐭": 5092,
      "🐮": 5093,
      "🐯": 5094,
      "🐰": 5095,
      "🐱": 5096,
      "🐳": 5097,
      "🐴": 5098,
      "🐵": 5099,
      "🐶": 5100,
      "🐷": 5101,
      "🐸": 5102,
      "🐹": 5103,
      "🐺": 5104,
      "🐻": 5105,
      "🐼": 5106,
      "🐾": 5107,
      "🐿": 5108,
      "👀": 5109,
      "👁": 5110,
      "👂": 5111,
      "👃": 5112,
      "👄": 5113,
      "👅": 5114,
      "👆": 5115,
      "👇": 5116,
      "👈": 5117,
      "👉": 5118,
      "👊": 5119,
      "👋": 5120,
      "👌": 5121,
      "👍": 5122,
      "👎": 5123,
      "👏": 5124,
      "👐": 5125,
      "👑": 5126,
      "👓": 5127,
      "👗": 5128,
      "👟": 5129,
      "👡": 5130,
      "👣": 5131,
      "👤": 5132,
      "👦": 5133,
      "👧": 5134,
      "👨": 5135,
      "👩": 5136,
      "👫": 5137,
      "👭": 5138,
      "👮": 5139,
      "👯": 5140,
      "👴": 5141,
      "👶": 5142,
      "👷": 5143,
      "👸": 5144,
      "👹": 5145,
      "👻": 5146,
      "👼": 5147,
      "👽": 5148,
      "👾": 5149,
      "👿": 5150,
      "💀": 5151,
      "💁": 5152,
      "💂": 5153,
      "💃": 5154,
      "💄": 5155,
      "💅": 5156,
      "💆": 5157,
      "💉": 5158,
      "💊": 5159,
      "💋": 5160,
      "💌": 5161,
      "💍": 5162,
      "💎": 5163,
      "💐": 5164,
      "💓": 5165,
      "💔": 5166,
      "💕": 5167,
      "💖": 5168,
      "💗": 5169,
      "💘": 5170,
      "💙": 5171,
      "💚": 5172,
      "💛": 5173,
      "💜": 5174,
      "💝": 5175,
      "💞": 5176,
      "💡": 5177,
      "💢": 5178,
      "💣": 5179,
      "💤": 5180,
      "💥": 5181,
      "💦": 5182,
      "💧": 5183,
      "💨": 5184,
      "💩": 5185,
      "💪": 5186,
      "💫": 5187,
      "💬": 5188,
      "💭": 5189,
      "💯": 5190,
      "💰": 5191,
      "💳": 5192,
      "💸": 5193,
      "💻": 5194,
      "💼": 5195,
      "💾": 5196,
      "💿": 5197,
      "📀": 5198,
      "📂": 5199,
      "📄": 5200,
      "📅": 5201,
      "📈": 5202,
      "📉": 5203,
      "📊": 5204,
      "📋": 5205,
      "📌": 5206,
      "📍": 5207,
      "📐": 5208,
      "📓": 5209,
      "📖": 5210,
      "📚": 5211,
      "📜": 5212,
      "📝": 5213,
      "📞": 5214,
      "📡": 5215,
      "📢": 5216,
      "📣": 5217,
      "📦": 5218,
      "📧": 5219,
      "📬": 5220,
      "📮": 5221,
      "📯": 5222,
      "📱": 5223,
      "📴": 5224,
      "📵": 5225,
      "📶": 5226,
      "📷": 5227,
      "📸": 5228,
      "📹": 5229,
      "📺": 5230,
      "📻": 5231,
      "📽": 5232,
      "📿": 5233,
      "🔁": 5234,
      "🔄": 5235,
      "🔆": 5236,
      "🔇": 5237,
      "🔊": 5238,
      "🔋": 5239,
      "🔍": 5240,
      "🔎": 5241,
      "🔐": 5242,
      "🔑": 5243,
      "🔒": 5244,
      "🔔": 5245,
      "🔗": 5246,
      "🔛": 5247,
      "🔝": 5248,
      "🔞": 5249,
      "🔥": 5250,
      "🔦": 5251,
      "🔧": 5252,
      "🔨": 5253,
      "🔩": 5254,
      "🔪": 5255,
      "🔫": 5256,
      "🔬": 5257,
      "🔮": 5258,
      "🔴": 5259,
      "🔵": 5260,
      "🔸": 5261,
      "🔹": 5262,
      "🕊": 5263,
      "🕐": 5264,
      "🕒": 5265,
      "🕘": 5266,
      "🕙": 5267,
      "🕯": 5268,
      "🕰": 5269,
      "🕳": 5270,
      "🕵": 5271,
      "🕶": 5272,
      "🕷": 5273,
      "🕹": 5274,
      "🕺": 5275,
      "🖊": 5276,
      "🖌": 5277,
      "🖐": 5278,
      "🖕": 5279,
      "🖤": 5280,
      "🖥": 5281,
      "🖼": 5282,
      "🗑": 5283,
      "🗒": 5284,
      "🗝": 5285,
      "🗣": 5286,
      "🗨": 5287,
      "🗯": 5288,
      "🗺": 5289,
      "🗿": 5290,
      "😁": 5291,
      "😂": 5292,
      "😄": 5293,
      "😅": 5294,
      "😆": 5295,
      "😇": 5296,
      "😈": 5297,
      "😉": 5298,
      "😊": 5299,
      "😋": 5300,
      "😌": 5301,
      "😍": 5302,
      "😎": 5303,
      "😏": 5304,
      "😐": 5305,
      "😑": 5306,
      "😒": 5307,
      "😓": 5308,
      "😔": 5309,
      "😘": 5310,
      "😛": 5311,
      "😜": 5312,
      "😝": 5313,
      "😞": 5314,
      "😟": 5315,
      "😠": 5316,
      "😡": 5317,
      "😢": 5318,
      "😣": 5319,
      "😤": 5320,
      "😥": 5321,
      "😨": 5322,
      "😩": 5323,
      "😪": 5324,
      "😫": 5325,
      "😬": 5326,
      "😭": 5327,
      "😮": 5328,
      "😯": 5329,
      "😰": 5330,
      "😱": 5331,
      "😲": 5332,
      "😳": 5333,
      "😴": 5334,
      "😵": 5335,
      "😶": 5336,
      "😷": 5337,
      "😸": 5338,
      "😹": 5339,
      "😺": 5340,
      "😼": 5341,
      "😿": 5342,
      "🙀": 5343,
      "🙁": 5344,
      "🙃": 5345,
      "🙄": 5346,
      "🙅": 5347,
      "🙆": 5348,
      "🙇": 5349,
      "🙈": 5350,
      "🙉": 5351,
      "🙋": 5352,
      "🙌": 5353,
      "🙏": 5354,
      "🚀": 5355,
      "🚂": 5356,
      "🚃": 5357,
      "🚄": 5358,
      "🚇": 5359,
      "🚌": 5360,
      "🚍": 5361,
      "🚑": 5362,
      "🚒": 5363,
      "🚕": 5364,
      "🚗": 5365,
      "🚚": 5366,
      "🚛": 5367,
      "🚜": 5368,
      "🚞": 5369,
      "🚤": 5370,
      "🚦": 5371,
      "🚧": 5372,
      "🚨": 5373,
      "🚩": 5374,
      "🚪": 5375,
      "🚫": 5376,
      "🚬": 5377,
      "🚭": 5378,
      "🚮": 5379,
      "🚰": 5380,
      "🚲": 5381,
      "🚴": 5382,
      "🚶": 5383,
      "🚽": 5384,
      "🚿": 5385,
      "🛀": 5386,
      "🛁": 5387,
      "🛂": 5388,
      "🛋": 5389,
      "🛌": 5390,
      "🛎": 5391,
      "🛏": 5392,
      "🛑": 5393,
      "🛒": 5394,
      "🛝": 5395,
      "🛠": 5396,
      "🛡": 5397,
      "🛣": 5398,
      "🛤": 5399,
      "🛩": 5400,
      "🛫": 5401,
      "🛰": 5402,
      "🛳": 5403,
      "🛴": 5404,
      "🛵": 5405,
      "🛸": 5406,
      "🛹": 5407,
      "🟠": 5408,
      "🟡": 5409,
      "🟢": 5410,
      "🟣": 5411,
      "🟦": 5412,
      "🤍": 5413,
      "🤏": 5414,
      "🤐": 5415,
      "🤑": 5416,
      "🤒": 5417,
      "🤓": 5418,
      "🤔": 5419,
      "🤕": 5420,
      "🤖": 5421,
      "🤗": 5422,
      "🤘": 5423,
      "🤙": 5424,
      "🤛": 5425,
      "🤜": 5426,
      "🤝": 5427,
      "🤞": 5428,
      "🤡": 5429,
      "🤢": 5430,
      "🤣": 5431,
      "🤤": 5432,
      "🤥": 5433,
      "🤦": 5434,
      "🤧": 5435,
      "🤨": 5436,
      "🤩": 5437,
      "🤪": 5438,
      "🤫": 5439,
      "🤬": 5440,
      "🤭": 5441,
      "🤯": 5442,
      "🤰": 5443,
      "🤱": 5444,
      "🤲": 5445,
      "🤳": 5446,
      "🤷": 5447,
      "🤸": 5448,
      "🤹": 5449,
      "🤺": 5450,
      "🤼": 5451,
      "🤿": 5452,
      "🥁": 5453,
      "🥂": 5454,
      "🥇": 5455,
      "🥈": 5456,
      "🥉": 5457,
      "🥊": 5458,
      "🥐": 5459,
      "🥑": 5460,
      "🥒": 5461,
      "🥓": 5462,
      "🥔": 5463,
      "🥕": 5464,
      "🥖": 5465,
      "🥘": 5466,
      "🥚": 5467,
      "🥛": 5468,
      "🥜": 5469,
      "🥞": 5470,
      "🥟": 5471,
      "🥡": 5472,
      "🥢": 5473,
      "🥣": 5474,
      "🥤": 5475,
      "🥦": 5476,
      "🥧": 5477,
      "🥨": 5478,
      "🥩": 5479,
      "🥬": 5480,
      "🥰": 5481,
      "🥱": 5482,
      "🥲": 5483,
      "🥳": 5484,
      "🥴": 5485,
      "🥵": 5486,
      "🥶": 5487,
      "🥷": 5488,
      "🥸": 5489,
      "🥹": 5490,
      "🥺": 5491,
      "🦀": 5492,
      "🦁": 5493,
      "🦃": 5494,
      "🦄": 5495,
      "🦅": 5496,
      "🦆": 5497,
      "🦇": 5498,
      "🦈": 5499,
      "🦉": 5500,
      "🦊": 5501,
      "🦋": 5502,
      "🦌": 5503,
      "🦍": 5504,
      "🦎": 5505,
      "🦏": 5506,
      "🦐": 5507,
      "🦑": 5508,
      "🦒": 5509,
      "🦔": 5510,
      "🦕": 5511,
      "🦖": 5512,
      "🦗": 5513,
      "🦘": 5514,
      "🦙": 5515,
      "🦛": 5516,
      "🦜": 5517,
      "🦞": 5518,
      "🦟": 5519,
      "🦠": 5520,
      "🦢": 5521,
      "🦥": 5522,
      "🦦": 5523,
      "🦩": 5524,
      "🦭": 5525,
      "🦮": 5526,
      "🦲": 5527,
      "🦴": 5528,
      "🦵": 5529,
      "🦶": 5530,
      "🦷": 5531,
      "🦸": 5532,
      "🦹": 5533,
      "🦾": 5534,
      "🧀": 5535,
      "🧁": 5536,
      "🧂": 5537,
      "🧃": 5538,
      "🧅": 5539,
      "🧈": 5540,
      "🧊": 5541,
      "🧋": 5542,
      "🧎": 5543,
      "🧐": 5544,
      "🧑": 5545,
      "🧖": 5546,
      "🧘": 5547,
      "🧙": 5548,
      "🧚": 5549,
      "🧛": 5550,
      "🧜": 5551,
      "🧞": 5552,
      "🧟": 5553,
      "🧠": 5554,
      "🧡": 5555,
      "🧣": 5556,
      "🧦": 5557,
      "🧧": 5558,
      "🧨": 5559,
      "🧩": 5560,
      "🧪": 5561,
      "🧬": 5562,
      "🧮": 5563,
      "🧯": 5564,
      "🧲": 5565,
      "🧴": 5566,
      "🧶": 5567,
      "🧸": 5568,
      "🧹": 5569,
      "🧺": 5570,
      "🧻": 5571,
      "🧽": 5572,
      "🩰": 5573,
      "🩲": 5574,
      "🩸": 5575,
      "🩹": 5576,
      "🩺": 5577,
      "🪁": 5578,
      "🪂": 5579,
      "🪄": 5580,
      "🪐": 5581,
      "🪑": 5582,
      "🪕": 5583,
      "🪞": 5584,
      "🪟": 5585,
      "🪢": 5586,
      "🪦": 5587,
      "🪨": 5588,
      "🪩": 5589,
      "🪫": 5590,
      "🪰": 5591,
      "🪵": 5592,
      "🪶": 5593,
      "🪽": 5594,
      "🫀": 5595,
      "🫁": 5596,
      "🫂": 5597,
      "🫐": 5598,
      "🫓": 5599,
      "🫖": 5600,
      "🫘": 5601,
      "🫠": 5602,
      "🫡": 5603,
      "🫢": 5604,
      "🫣": 5605,
      "🫥": 5606,
      "🫧": 5607,
      "🫨": 5608,
      "🫴": 5609,
      "🫵": 5610,
      "🫶": 5611,
      "𬌗": 5612,
      "**": 5613,
      "\n\n": 5614,
      "in": 5615,
      "睡眠": 5616,
      "小曦": 5617,
      "th": 5618,
      "  ": 5619,
      "e ": 5620,
      "——": 5621,
      "ing": 5622,
      "。\n\n": 5623,
      "一个": 5624,
      "不是": 5625,
      "..": 5626,
      ". ": 5627,
      "king": 5628,
      "thin": 5629,
      "thinking": 5630,
      "thinking>": 5631,
      "，但": 5632,
      "s ": 5633,
      "），": 5634,
      "可能": 5635,
      "自己": 5636,
      "呼吸": 5637,
      "d ": 5638,
      "这个": 5639,
      "ta": 5640,
      "er": 5641,
      "需要": 5642,
      "，我": 5643,
      "- ": 5644,
      "了，": 5645,
      "ti": 5646,
      "用户": 5647,
      "如果": 5648,
      "失眠": 5649,
      "问题": 5650,
      "的睡眠": 5651,
      "en": 5652,
      "an": 5653,
      "on": 5654,
      "  \n": 5655,
      "。\n": 5656,
      "，这": 5657,
      "可以": 5658,
      "建议": 5659,
      "大脑": 5660,
      "**：": 5661,
      "健康": 5662,
      "白天": 5663,
      "re": 5664,
      "现在": 5665,
      "，你": 5666,
      "睡觉": 5667,
      "...": 5668,
      "有趣": 5669,
      "身体": 5670,
      "伙伴": 5671,
      "医生": 5672,
      "温暖": 5673,
      "比如": 5674,
      "这种": 5675,
      "</": 5676,
      "al": 5677,
      "或者": 5678,
      "小时": 5679,
      "</thinking>\n\n": 5680,
      "就是": 5681,
      "or": 5682,
      "健康伙伴": 5683,
      "你是": 5684,
      "你的": 5685,
      "（小曦": 5686,
      "<thinking>\n": 5687,
      "的睡眠健康伙伴": 5688,
      "t ": 5689,
      "y ": 5690,
      "睡前": 5691,
      "一个温暖": 5692,
      "）\n\n": 5693,
      "星辰": 5694,
      "星辰曦": 5695,
      "星辰曦（小曦": 5696,
      "有趣的睡眠健康伙伴": 5697,
      "你是星辰曦（小曦": 5698,
      "有趣的睡眠健康伙伴。": 5699,
      "），一个温暖": 5700,
      "你是星辰曦（小曦），一个温暖": 5701,
      "你是星辰曦（小曦），一个温暖有趣的睡眠健康伙伴。": 5702,
      "什么": 5703,
      "晚上": 5704,
      "）\n": 5705,
      "知道": 5706,
      "最后": 5707,
      "就像": 5708,
      "感觉": 5709,
      "ed ": 5710,
      "时候": 5711,
      ", ": 5712,
      "时间": 5713,
      "觉得": 5714,
      "睡不": 5715,
      "一下": 5716,
      "然后": 5717,
      "真的": 5718,
      "没有": 5719,
      "：**": 5720,
      "吗？": 5721,
      "of": 5722,
      "，让": 5723,
      "\n\n**": 5724,
      "焦虑": 5725,
      ". **": 5726,
      "，而": 5727,
      "ar": 5728,
      "of ": 5729,
      "了。": 5730,
      "the ": 5731,
      "ati": 5732,
      "，小曦": 5733,
      "因为": 5734,
      "暂停": 5735,
      "ic": 5736,
      "不过": 5737,
      "”，": 5738,
      "了！": 5739,
      "给你": 5740,
      "不能": 5741,
      "睡不着": 5742,
      "and ": 5743,
      "诶嘿": 5744,
      "一样": 5745,
      "其实": 5746,
      "呼吸暂停": 5747,
      "ro": 5748,
      "情绪": 5749,
      "\n- ": 5750,
      "分钟": 5751,
      "突然": 5752,
      "咱们": 5753,
      "** ": 5754,
      "还是": 5755,
      "特别": 5756,
      "……": 5757,
      "起来": 5758,
      "at": 5759,
      "的“": 5760,
      "那种": 5761,
      "的，": 5762,
      "情况": 5763,
      "si": 5764,
      "”的": 5765,
      "压力": 5766,
      "我们": 5767,
      "。\n</thinking>\n\n": 5768,
      "是不是": 5769,
      " **": 5770,
      "诶嘿~": 5771,
      "想象": 5772,
      "作为": 5773,
      "o ": 5774,
      "已经": 5775,
      "的是": 5776,
      "in ": 5777,
      "怎么": 5778,
      "治疗": 5779,
      "神经": 5780,
      "）。": 5781,
      "导致": 5782,
      "确实": 5783,
      "on ": 5784,
      "手机": 5785,
      "   ": 5786,
      "正常": 5787,
      "al ": 5788,
      "放松": 5789,
      "睡着": 5790,
      "语气": 5791,
      "监测": 5792,
      "的小": 5793,
      "所以": 5794,
      "as": 5795,
      "注意": 5796,
      "，那": 5797,
      "。\n\n**": 5798,
      "这样": 5799,
      "）\n\n（": 5800,
      "试试": 5801,
      "人类": 5802,
      "症状": 5803,
      "。我": 5804,
      "来，": 5805,
      "di": 5806,
      "专业": 5807,
      "担心": 5808,
      "孩子": 5809,
      "啊啊": 5810,
      "影响": 5811,
      "SA": 5812,
      "方式": 5813,
      "半夜": 5814,
      "**，": 5815,
      "es": 5816,
      "容易": 5817,
      "慢慢": 5818,
      "   - ": 5819,
      "的时候": 5820,
      "om": 5821,
      "陪你": 5822,
      "药物": 5823,
      "睡眠呼吸暂停": 5824,
      "状态": 5825,
      "，再": 5826,
      "**（": 5827,
      "直接": 5828,
      "ec": 5829,
      "开始": 5830,
      "理解": 5831,
      "有人": 5832,
      "那个": 5833,
      "完全": 5834,
      "障碍": 5835,
      "--": 5836,
      "不会": 5837,
      "ent": 5838,
      "OSA": 5839,
      "诊断": 5840,
      "检查": 5841,
      "夜间": 5842,
      "每天": 5843,
      "~ ": 5844,
      "\"的": 5845,
      "虽然": 5846,
      "分析": 5847,
      " p": 5848,
      "！\n\n": 5849,
      "打鼾": 5850,
      "ur": 5851,
      "一点": 5852,
      "，然后": 5853,
      "方案": 5854,
      "，不": 5855,
      "st": 5856,
      "枕头": 5857,
      "毕竟": 5858,
      "朋友": 5859,
      "共情": 5860,
      "入睡": 5861,
      "。）\n\n（": 5862,
      "调整": 5863,
      "反而": 5864,
      "，是": 5865,
      "。但": 5866,
      "只是": 5867,
      "出现": 5868,
      "这个问题": 5869,
      "10": 5870,
      "吐槽": 5871,
      "发作": 5872,
      "小曦的": 5873,
      "as ": 5874,
      "模式": 5875,
      "睡觉时": 5876,
      "er ": 5877,
      "排除": 5878,
      "ing ": 5879,
      "温柔": 5880,
      "醒来": 5881,
      "️⃣": 5882,
      "知识": 5883,
      "th ": 5884,
      "一定": 5885,
      "啊！": 5886,
      "，或者": 5887,
      "咖啡": 5888,
      "or ": 5889,
      ") ": 5890,
      "。你": 5891,
      "睡眠监测": 5892,
      "肌肉": 5893,
      "，像": 5894,
      "工作": 5895,
      "to ": 5896,
      "，把": 5897,
      "医学": 5898,
      "安全": 5899,
      "有没有": 5900,
      "结果": 5901,
      "）\n</thinking>\n\n": 5902,
      "el": 5903,
      "核心": 5904,
      "这些": 5905,
      "常见": 5906,
      "ac": 5907,
      "（比如": 5908,
      "：“": 5909,
      "<thinking>\n（": 5910,
      "  \n\n": 5911,
      "的\"": 5912,
      "感受": 5913,
      "20": 5914,
      "，别": 5915,
      "一起": 5916,
      "es ": 5917,
      "，而是": 5918,
      "个月": 5919,
      "典型": 5920,
      "小曦，我": 5921,
      "wi": 5922,
      "关键": 5923,
      "得先": 5924,
      "今晚": 5925,
      "你说": 5926,
      "的方式": 5927,
      "妈妈": 5928,
      "比喻": 5929,
      "的人": 5930,
      "。这": 5931,
      "a ": 5932,
      "肯定": 5933,
      "ere ": 5934,
      "不要": 5935,
      "，比如": 5936,
      "，还": 5937,
      "系统": 5938,
      "抱抱": 5939,
      "运动": 5940,
      "）、": 5941,
      "可能是": 5942,
      "。  \n": 5943,
      "黑素": 5944,
      "褪黑素": 5945,
      "解释": 5946,
      "它们": 5947,
      "描述": 5948,
      "清醒": 5949,
      "说明": 5950,
      "第二": 5951,
      "发现": 5952,
      "行为": 5953,
      "**  \n": 5954,
      "脑子": 5955,
      "声音": 5956,
      "，就": 5957,
      "凌晨": 5958,
      "为什么": 5959,
      "很多": 5960,
      "长期": 5961,
      "应该": 5962,
      "让ta": 5963,
      "也太": 5964,
      "自然": 5965,
      "，晚上": 5966,
      "梦里": 5967,
      "了吧": 5968,
      "ol": 5969,
      "气道": 5970,
      "今天": 5971,
      "：\n": 5972,
      "RE": 5973,
      "同时": 5974,
      "严重": 5975,
      "明天": 5976,
      "变成": 5977,
      "其他": 5978,
      "通常": 5979,
      "综合": 5980,
      "那些": 5981,
      "em": 5982,
      "具体": 5983,
      "啦！": 5984,
      "REM": 5985,
      "评估": 5986,
      "\"，": 5987,
      "。如果": 5988,
      "~\n\n": 5989,
      "持续": 5990,
      "- **": 5991,
      "要是": 5992,
      "引导": 5993,
      "床上": 5994,
      "呼噜": 5995,
      "啊，": 5996,
      "还在": 5997,
      "啊这": 5998,
      "告诉": 5999,
      "这么": 6000,
      "were ": 6001,
      "必须": 6002,
      "是个": 6003,
      "<thinking>\n用户": 6004,
      "，有": 6005,
      "医院": 6006,
      "AP": 6007,
      "轻轻": 6008,
      "心理": 6009,
      "精神": 6010,
      "综合征": 6011,
      "让她": 6012,
      "with ": 6013,
      "心疼": 6014,
      "出来": 6015,
      "，用": 6016,
      "0.": 6017,
      "”。": 6018,
      "最近": 6019,
      "was ": 6020,
      "ul": 6021,
      "##": 6022,
      "熬夜": 6023,
      "功能": 6024,
      "一次": 6025,
      "噪音": 6026,
      "ent ": 6027,
      "et": 6028,
      "下来": 6029,
      "科普": 6030,
      "尤其": 6031,
      "it": 6032,
      "科学": 6033,
      "重要": 6034,
      "了一": 6035,
      "做梦": 6036,
      "是否": 6037,
      "ve ": 6038,
      "眼睛": 6039,
      "，现在": 6040,
      "生物": 6041,
      "血压": 6042,
      "哈哈": 6043,
      "风险": 6044,
      "我的": 6045,
      "梦境": 6046,
      "有点": 6047,
      "甚至": 6048,
      "！（": 6049,
      "，又": 6050,
      "atient": 6051,
      "，不是": 6052,
      "CP": 6053,
      "别担心": 6054,
      "un": 6055,
      "做个": 6056,
      "<thinking>\n我们": 6057,
      "事儿": 6058,
      "轻松": 6059,
      "一个人": 6060,
      "，要": 6061,
      "信号": 6062,
      "让你": 6063,
      "os": 6064,
      "多导": 6065,
      "以上": 6066,
      "效果": 6067,
      "2. ": 6068,
      "考虑": 6069,
      "这是": 6070,
      "1. ": 6071,
      "，小曦陪你": 6072,
      "️⃣ **": 6073,
      "（如": 6074,
      "原因": 6075,
      "记忆": 6076,
      "15": 6077,
      "3. ": 6078,
      "30": 6079,
      "res": 6080,
      "简直": 6081,
      "Th": 6082,
      "首先": 6083,
      "en ": 6084,
      "方法": 6085,
      "，就像": 6086,
      "噩梦": 6087,
      "激素": 6088,
      "反应": 6089,
      "都是": 6090,
      "帮你": 6091,
      "l ": 6092,
      "。最后": 6093,
      "HI": 6094,
      "作为小曦，我": 6095,
      "，白天": 6096,
      "控制": 6097,
      "的问题": 6098,
      "1. **": 6099,
      "**——": 6100,
      "循环": 6101,
      "抱抱你": 6102,
      "还有": 6103,
      "心里": 6104,
      "缓解": 6105,
      "2. **": 6106,
      "嗜睡": 6107,
      "，一": 6108,
      "le": 6109,
      "作用": 6110,
      "改善": 6111,
      "宝宝": 6112,
      "这位": 6113,
      "活泼": 6114,
      "鉴别": 6115,
      "op": 6116,
      "舒服": 6117,
      "看到": 6118,
      "给出": 6119,
      "第二天": 6120,
      "CPAP": 6121,
      "明显": 6122,
      "让人": 6123,
      "生物钟": 6124,
      "连续": 6125,
      "意识": 6126,
      "生理": 6127,
      "，需要": 6128,
      "。\n</thinking>\n\n诶嘿~": 6129,
      "紧张": 6130,
      "看看": 6131,
      "AHI": 6132,
      "质量": 6133,
      "角度": 6134,
      "，也": 6135,
      "吸管": 6136,
      "提醒": 6137,
      "折磨": 6138,
      "了吧！": 6139,
      "）\n（": 6140,
      "”——": 6141,
      "ch": 6142,
      "，大脑": 6143,
      "习惯": 6144,
      "下降": 6145,
      "，可以": 6146,
      "。可以": 6147,
      "表现": 6148,
      "让我": 6149,
      "，它": 6150,
      "ag": 6151,
      "简单": 6152,
      "com": 6153,
      "PS": 6154,
      "生活": 6155,
      "冥想": 6156,
      "实用": 6157,
      "不足": 6158,
      "is": 6159,
      "atients ": 6160,
      "的语气": 6161,
      "3. **": 6162,
      "一定要": 6163,
      "节律": 6164,
      "an ": 6165,
      "，这种": 6166,
      "相关": 6167,
      "，如果": 6168,
      "而且": 6169,
      "记得": 6170,
      "con": 6171,
      "个小": 6172,
      "回答": 6173,
      "环境": 6174,
      "保持": 6175,
      "抑郁": 6176,
      "冷知识": 6177,
      "多导睡眠监测": 6178,
      "up": 6179,
      "的事": 6180,
      "动物": 6181,
      "正经": 6182,
      "快速": 6183,
      "吸气": 6184,
      "偷偷": 6185,
      "心脏": 6186,
      "第一": 6187,
      "每晚": 6188,
      "us": 6189,
      "的感觉": 6190,
      "for ": 6191,
      "，可能": 6192,
      "记住": 6193,
      "故事": 6194,
      "ly ": 6195,
      "ra": 6196,
      "周期": 6197,
      "被子": 6198,
      "一种": 6199,
      "东西": 6200,
      "ation ": 6201,
      "**。": 6202,
      "大概": 6203,
      "难受": 6204,
      "，这是": 6205,
      "得用": 6206,
      "患者": 6207,
      "打呼噜": 6208,
      "的话": 6209,
      "分泌": 6210,
      "加重": 6211,
      "me": 6212,
      "姿势": 6213,
      "给自己": 6214,
      "搞怪": 6215,
      "lo": 6216,
      "m ": 6217,
      "休息": 6218,
      "这个问题问": 6219,
      "呼气": 6220,
      "睡不着，": 6221,
      "风格": 6222,
      "单纯": 6223,
      "感受到": 6224,
      "几个": 6225,
      "才能": 6226,
      "）\n</thinking>\n\n啊啊": 6227,
      "避免": 6228,
      "，结果": 6229,
      "，最后": 6230,
      "我说": 6231,
      "里的": 6232,
      "PSG": 6233,
      "关系": 6234,
      "白噪音": 6235,
      "不好": 6236,
      "眠药": 6237,
      "免责": 6238,
      "夸张": 6239,
      "解决": 6240,
      "游戏": 6241,
      "的。": 6242,
      "，不能": 6243,
      "清楚": 6244,
      "别担心，小曦陪你": 6245,
      "闹钟": 6246,
      "节奏": 6247,
      "。需要": 6248,
      "一句": 6249,
      "本身": 6250,
      "刺激": 6251,
      "动作": 6252,
      "il": 6253,
      "深夜": 6254,
      "狠狠": 6255,
      "ep": 6256,
      "了个": 6257,
      "ic ": 6258,
      "真正": 6259,
      "---": 6260,
      "早上": 6261,
      "还要": 6262,
      "ex": 6263,
      "心跳": 6264,
      "血氧": 6265,
      "因素": 6266,
      "躺下": 6267,
      "：\"": 6268,
      "0%": 6269,
      "The ": 6270,
      "\n   - ": 6271,
      "超过": 6272,
      "。）\n（": 6273,
      "！”": 6274,
      "其实是": 6275,
      "剂量": 6276,
      "，让ta": 6277,
      "if": 6278,
      "他们": 6279,
      "tic": 6280,
      "晚安": 6281,
      "兴奋": 6282,
      "机制": 6283,
      "俏皮": 6284,
      "说\"": 6285,
      "有些": 6286,
      "操作": 6287,
      "听到": 6288,
      "睡得": 6289,
      "说“": 6290,
      "。用户": 6291,
      "躺在": 6292,
      "，而不是": 6293,
      "enc": 6294,
      "她的": 6295,
      "ter": 6296,
      "：\n- ": 6297,
      "就能": 6298,
      "尤其是": 6299,
      "4小时": 6300,
      "重点": 6301,
      "ated ": 6302,
      "我是": 6303,
      "认知": 6304,
      "崩溃": 6305,
      "im": 6306,
      "经历": 6307,
      "，先": 6308,
      "岁，": 6309,
      "有个": 6310,
      "都在": 6311,
      "咖啡因": 6312,
      "ff": 6313,
      "痛苦": 6314,
      "危险": 6315,
      "气得": 6316,
      "呼吸机": 6317,
      "，因为": 6318,
      "所有": 6319,
      "人的": 6320,
      "e of ": 6321,
      "明明": 6322,
      "根本": 6323,
      "4. ": 6324,
      "活动": 6325,
      "疯狂": 6326,
      "经常": 6327,
      "标准": 6328,
      "，**": 6329,
      "vi": 6330,
      "立刻": 6331,
      "手术": 6332,
      "am": 6333,
      "，毕竟": 6334,
      "是“": 6335,
      "这个问题问得": 6336,
      "要不": 6337,
      "，而且": 6338,
      "。”": 6339,
      "ad": 6340,
      "儿童": 6341,
      "，身体": 6342,
      "增加": 6343,
      "存在": 6344,
      " (": 6345,
      "鉴别诊断": 6346,
      "提示": 6347,
      "拟人": 6348,
      "，能": 6349,
      "了？": 6350,
      "世界": 6351,
      "侧卧": 6352,
      "：** ": 6353,
      "跟你说": 6354,
      "作息": 6355,
      "梦游": 6356,
      "吧？": 6357,
      "血管": 6358,
      "自己的": 6359,
      "减少": 6360,
      "别急": 6361,
      "说教": 6362,
      "发作性": 6363,
      "，咱们": 6364,
      "tion": 6365,
      "使用": 6366,
      "声明": 6367,
      "ou": 6368,
      "想想": 6369,
      "tion ": 6370,
      "不行": 6371,
      "，这样": 6372,
      "ud": 6373,
      "一直": 6374,
      "太懂": 6375,
      "有效": 6376,
      "）  \n": 6377,
      "睡病": 6378,
      "睡眠质量": 6379,
      "is ": 6380,
      "过度": 6381,
      "最需要": 6382,
      "睡眠中": 6383,
      "安眠药": 6384,
      "！** ": 6385,
      "，是不是": 6386,
      "发作性睡病": 6387,
      "  \n\n**": 6388,
      "如果你": 6389,
      "<thinking>\n（用户": 6390,
      "，可": 6391,
      "注意力": 6392,
      "we": 6393,
      "替代": 6394,
      "自动": 6395,
      "ta的": 6396,
      "提到": 6397,
      "进入": 6398,
      "00": 6399,
      "认真": 6400,
      "pl": 6401,
      "助眠": 6402,
      "拟人化": 6403,
      "好好": 6404,
      "那么": 6405,
      "让他": 6406,
      "的建议": 6407,
      "研究": 6408,
      "可能性": 6409,
      "固定": 6410,
      "记录": 6411,
      "一段": 6412,
      "意思": 6413,
      "温度": 6414,
      "属于": 6415,
      "**\n": 6416,
      "ig": 6417,
      "老公": 6418,
      "at ": 6419,
      "两个": 6420,
      "，既": 6421,
      "-3": 6422,
      "免责声明": 6423,
      "用\"": 6424,
      "疗法": 6425,
      "血糖": 6426,
      "跟着": 6427,
      "ed": 6428,
      "oc": 6429,
      "依赖": 6430,
      "催眠": 6431,
      "醒，": 6432,
      "ver": 6433,
      "发生": 6434,
      "“睡眠": 6435,
      "被理解": 6436,
      "安静": 6437,
      "睡，": 6438,
      "去医院": 6439,
      "自我": 6440,
      "12": 6441,
      "了，我": 6442,
      "！你": 6443,
      "不用": 6444,
      "每次": 6445,
      "头痛": 6446,
      "观察": 6447,
      "上，": 6448,
      "sta": 6449,
      "拳头": 6450,
      "数据": 6451,
      "wh": 6452,
      "办法": 6453,
      "结构": 6454,
      "ation": 6455,
      "，同时": 6456,
      "阻塞": 6457,
      "好，": 6458,
      "实在": 6459,
      "真实": 6460,
      "睡眠不足": 6461,
      "异常": 6462,
      "小时，": 6463,
      "pro": 6464,
      "处理": 6465,
      "就会": 6466,
      "事实": 6467,
      "明确": 6468,
      "副作用": 6469,
      "梦到": 6470,
      "，让她": 6471,
      "千万": 6472,
      "AI": 6473,
      "以为": 6474,
      "实际": 6475,
      "陪着": 6476,
      "偶尔": 6477,
      "现象": 6478,
      "）：": 6479,
      "推荐": 6480,
      "继续": 6481,
      "随时": 6482,
      "体重": 6483,
      "科医生": 6484,
      "，医生": 6485,
      "疲惫": 6486,
      "鼻子": 6487,
      "大脑在": 6488,
      "深度": 6489,
      "阶段": 6490,
      "的！": 6491,
      "-2": 6492,
      "起床": 6493,
      "困难": 6494,
      "cl": 6495,
      "。不过": 6496,
      "️⃣ ": 6497,
      "gn": 6498,
      "有关": 6499,
      "觉醒": 6500,
      "道理": 6501,
      "怀疑": 6502,
      "ir": 6503,
      "适应": 6504,
      "频繁": 6505,
      "一顿": 6506,
      "紊乱": 6507,
      "mg": 6508,
      "一些": 6509,
      "规律": 6510,
      "这事儿": 6511,
      "确诊": 6512,
      "都会": 6513,
      " and ": 6514,
      "“我": 6515,
      "了——": 6516,
      "天哪": 6517,
      "小曦，": 6518,
      "体温": 6519,
      "聊天": 6520,
      "不住": 6521,
      "。然后": 6522,
      "要不要": 6523,
      "脑子里": 6524,
      "一边": 6525,
      "：\n\n": 6526,
      "这不是": 6527,
      "性睡眠呼吸暂停": 6528,
      "睡眠的": 6529,
      "只有": 6530,
      "比作": 6531,
      "要用": 6532,
      "画面": 6533,
      "产后": 6534,
      "了\"": 6535,
      "roup": 6536,
      "带着": 6537,
      "ear": 6538,
      "太多": 6539,
      "，说明": 6540,
      "anc": 6541,
      "加班": 6542,
      "非常": 6543,
      "###": 6544,
      "信息": 6545,
      "平时": 6546,
      ", and ": 6547,
      "5%": 6548,
      "是在": 6549,
      "可能会": 6550,
      "ical ": 6551,
      "s of ": 6552,
      "）\n- ": 6553,
      "### ": 6554,
      "小曦，你": 6555,
      "伴随": 6556,
      "整个": 6557,
      "会不会": 6558,
      "！！": 6559,
      "呢？": 6560,
      "磨牙": 6561,
      "og": 6562,
      "调节": 6563,
      "在这": 6564,
      "中枢": 6565,
      "tr": 6566,
      "确认": 6567,
      "、白天": 6568,
      "ab": 6569,
      "眼动": 6570,
      "**\n\n": 6571,
      "仪式": 6572,
      "代谢": 6573,
      "可是": 6574,
      "缺氧": 6575,
      "还没": 6576,
      "狠狠共情": 6577,
      "ap": 6578,
      "干预": 6579,
      "。\n- **": 6580,
      "内容": 6581,
      "癫痫": 6582,
      "per": 6583,
      "落到": 6584,
      "su": 6585,
      "的情况": 6586,
      "引起": 6587,
      "不对": 6588,
      "关机": 6589,
      "三点": 6590,
      "气得想": 6591,
      "呢！": 6592,
      "肚子": 6593,
      "正在": 6594,
      "老年": 6595,
      "group": 6596,
      "恐惧": 6597,
      "内科": 6598,
      "委屈": 6599,
      "，就是": 6600,
      "部分": 6601,
      "不够": 6602,
      "反复": 6603,
      "夜班": 6604,
      "深呼吸": 6605,
      "s. ": 6606,
      "警惕": 6607,
      "：**\n": 6608,
      "ph": 6609,
      "会儿": 6610,
      "好了，": 6611,
      "脑洞": 6612,
      "反流": 6613,
      "（PSG": 6614,
      "睡眠健康": 6615,
      "——**": 6616,
      "腺样": 6617,
      "：\n1. ": 6618,
      "憋醒": 6619,
      "！小曦": 6620,
      "20分钟": 6621,
      "腺样体": 6622,
      "充电": 6623,
      "也会": 6624,
      "ity ": 6625,
      "睡姿": 6626,
      "躺平": 6627,
      "时，": 6628,
      "核心事实": 6629,
      "训练": 6630,
      "酒精": 6631,
      "快速眼动": 6632,
      "一周": 6633,
      "伴有": 6634,
      "可爱": 6635,
      "in the ": 6636,
      "牛奶": 6637,
      "里，": 6638,
      "，建议": 6639,
      "换个": 6640,
      "ha": 6641,
      "用“": 6642,
      "适合": 6643,
      "幻觉": 6644,
      "治疗方案": 6645,
      "虽然小曦": 6646,
      "表达": 6647,
      "\"这种": 6648,
      "云朵": 6649,
      "：先": 6650,
      "rec": 6651,
      "来就": 6652,
      "一样，": 6653,
      "”（": 6654,
      "恢复": 6655,
      "\"——": 6656,
      "大概率": 6657,
      "呼吸法": 6658,
      "关于": 6659,
      "嗯...": 6660,
      "得像": 6661,
      "加上": 6662,
      "变化": 6663,
      "尝试": 6664,
      "，所以": 6665,
      "\n\n（": 6666,
      "). ": 6667,
      "件事": 6668,
      "：**  \n": 6669,
      "为了": 6670,
      "场景": 6671,
      "。她": 6672,
      "、或者": 6673,
      "犯困": 6674,
      "还能": 6675,
      "），但": 6676,
      "超级": 6677,
      "深睡眠": 6678,
      "疾病": 6679,
      "觉得自己": 6680,
      "ect": 6681,
      "igh": 6682,
      "扁桃": 6683,
      "扁桃体": 6684,
      "for": 6685,
      "哎呀": 6686,
      "帮助": 6687,
      "qu": 6688,
      "带点": 6689,
      "id": 6690,
      "管用": 6691,
      "说话": 6692,
      "的比喻": 6693,
      "se": 6694,
      "了。\n\n": 6695,
      "下午": 6696,
      "绝对": 6697,
      "面罩": 6698,
      "，这个": 6699,
      "塌陷": 6700,
      "悄悄": 6701,
      "。ta": 6702,
      "太阳": 6703,
      "真的太": 6704,
      "梦见": 6705,
      "符合": 6706,
      "身体在": 6707,
      "口水": 6708,
      "绝望": 6709,
      "数羊": 6710,
      "别急着": 6711,
      "听着": 6712,
      "= ": 6713,
      "1.": 6714,
      "vel": 6715,
      "no": 6716,
      "啊这也太": 6717,
      "只能": 6718,
      "过去": 6719,
      "千万别": 6720,
      "大的": 6721,
      "没有拳头": 6722,
      "4-": 6723,
      "都能": 6724,
      "脖子": 6725,
      "）。\n\n": 6726,
      "REM睡眠": 6727,
      "sur": 6728,
      "。（": 6729,
      "。毕竟": 6730,
      "讨厌": 6731,
      "门诊": 6732,
      "坚持": 6733,
      "4. **": 6734,
      "考试": 6735,
      "蛋白": 6736,
      "口腔": 6737,
      "sp": 6738,
      "一根": 6739,
      "我懂": 6740,
      "回来": 6741,
      "LS": 6742,
      "准备": 6743,
      "，对": 6744,
      "安慰": 6745,
      "，你的": 6746,
      "，想": 6747,
      "叫“": 6748,
      "个“": 6749,
      "天亮": 6750,
      "最好": 6751,
      "不需要": 6752,
      "啊这...": 6753,
      "co": 6754,
      "准确": 6755,
      "星星": 6756,
      "夜惊": 6757,
      "um": 6758,
      "但是": 6759,
      "给点": 6760,
      "不是一个人": 6761,
      "，看": 6762,
      "，说": 6763,
      "让ta知道": 6764,
      "哪怕": 6765,
      "**：如果": 6766,
      "RLS": 6767,
      "：你": 6768,
      "努力": 6769,
      "的、": 6770,
      "通过": 6771,
      "下次": 6772,
      "那样": 6773,
      "笑话": 6774,
      "到了": 6775,
      "的时候，": 6776,
      "。）\n\n（作为小曦，我": 6777,
      "不想": 6778,
      "失眠的": 6779,
      "这种情况": 6780,
      "。  \n\n": 6781,
      "判断": 6782,
      "。\n- ": 6783,
      "下来，": 6784,
      "不同": 6785,
      "肥大": 6786,
      "技巧": 6787,
      "蓝光": 6788,
      "严肃": 6789,
      "我跟你说": 6790,
      "用药": 6791,
      "秒，": 6792,
      "肢体": 6793,
      "来来": 6794,
      "不宁": 6795,
      "温水": 6796,
      "。\n   - ": 6797,
      "s, ": 6798,
      "der": 6799,
      "会让": 6800,
      "tal ": 6801,
      "碎片": 6802,
      "tive ": 6803,
      "uc": 6804,
      "一只": 6805,
      "~（": 6806,
      "失眠，": 6807,
      "导致的": 6808,
      "ass": 6809,
      "典型的": 6810,
      " m": 6811,
      "肩膀": 6812,
      "幽默": 6813,
      "躺着": 6814,
      "1小时": 6815,
      "午睡": 6816,
      " patients ": 6817,
      "哦！": 6818,
      "不宁腿": 6819,
      "。）\n</thinking>\n\n啊啊": 6820,
      "电图": 6821,
      "靠谱": 6822,
      "，我们": 6823,
      "慢性": 6824,
      "耳朵": 6825,
      "阻塞性睡眠呼吸暂停": 6826,
      "到底": 6827,
      "视频": 6828,
      "在梦里": 6829,
      "。作为": 6830,
      "包括": 6831,
      "跟你": 6832,
      "下去": 6833,
      "高血压": 6834,
      "才是": 6835,
      "轻度": 6836,
      "睡眠时": 6837,
      "孤独": 6838,
      "思路": 6839,
      "很多人": 6840,
      "抑制": 6841,
      "red ": 6842,
      "\n- **": 6843,
      "强调": 6844,
      "当然": 6845,
      "你的大脑": 6846,
      "梦话": 6847,
      "牙齿": 6848,
      "ate ": 6849,
      "了，但": 6850,
      "别慌": 6851,
      "口气": 6852,
      "不到": 6853,
      "体验": 6854,
      "：用户": 6855,
      "sign": 6856,
      "de": 6857,
      "室友": 6858,
      "刚才": 6859,
      "stud": 6860,
      "个\"": 6861,
      "昼夜": 6862,
      "：  \n": 6863,
      "根据": 6864,
      "上班": 6865,
      "心慌": 6866,
      "补觉": 6867,
      "。所以": 6868,
      "翻来": 6869,
      "闭上": 6870,
      "科或": 6871,
      "姐妹": 6872,
      "）\n\n**": 6873,
      "ific": 6874,
      "喜欢": 6875,
      "现实": 6876,
      "（PSG）": 6877,
      "一步": 6878,
      "日记": 6879,
      "程序": 6880,
      "patients ": 6881,
      "去揍": 6882,
      "处于": 6883,
      "害怕": 6884,
      "降低": 6885,
      "切换": 6886,
      "安抚": 6887,
      "**！": 6888,
      "怎么办": 6889,
      "老板": 6890,
      "膀胱": 6891,
      "ne": 6892,
      "强行": 6893,
      "想象一下": 6894,
      "是你": 6895,
      " = ": 6896,
      "分享": 6897,
      "顺便": 6898,
      "压力大": 6899,
      "周期性": 6900,
      "的不是": 6901,
      "相当": 6902,
      "有意思": 6903,
      "没用": 6904,
      "→ ": 6905,
      "一个月": 6906,
      "这个问题问得好": 6907,
      "憋气": 6908,
      "三个月": 6909,
      "喉咙": 6910,
      "每个": 6911,
      "都不": 6912,
      "翻来覆": 6913,
      "你知道": 6914,
      "先给你": 6915,
      "翻来覆去": 6916,
      "建议你": 6917,
      "另外": 6918,
      "——这": 6919,
      "出去": 6920,
      "半年": 6921,
      "跟我说": 6922,
      "s (": 6923,
      "如果是": 6924,
      "就像你": 6925,
      "机器": 6926,
      "保证": 6927,
      "睡眠专": 6928,
      "val": 6929,
      "---\n\n": 6930,
      "，更": 6931,
      "重新": 6932,
      "人家": 6933,
      "现在的": 6934,
      "战斗": 6935,
      "low": 6936,
      "屏幕": 6937,
      "comp": 6938,
      "下班": 6939,
      "敏感": 6940,
      "虽然小曦没有拳头": 6941,
      "”**：": 6942,
      "设计": 6943,
      "配合": 6944,
      "睡眠障碍": 6945,
      "。</thinking>\n\n": 6946,
      "！我": 6947,
      "陪伴": 6948,
      "甲状": 6949,
      "程度": 6950,
      "至少": 6951,
      "地方": 6952,
      "有人能": 6953,
      "）\n</thinking>\n\n诶嘿~": 6954,
      "之后": 6955,
      "提前": 6956,
      "空气": 6957,
      "重度": 6958,
      "搞笑": 6959,
      "辛苦": 6960,
      "\n\n不过": 6961,
      "脚趾": 6962,
      "（OSA": 6963,
      "婴儿": 6964,
      "负责": 6965,
      "甲状腺": 6966,
      "SD": 6967,
      "神经内科": 6968,
      "，甚至": 6969,
      "心情": 6970,
      "温和": 6971,
      "。用": 6972,
      "！\"": 6973,
      "ine ": 6974,
      "——你": 6975,
      "第三": 6976,
      "5-": 6977,
      "自嘲": 6978,
      "，在": 6979,
      "家长": 6980,
      "啦~": 6981,
      "闺蜜": 6982,
      "来找": 6983,
      "站在": 6984,
      "，得": 6985,
      "BD": 6986,
      "MI": 6987,
      "听起来": 6988,
      "疼痛": 6989,
      " of ": 6990,
      "3-": 6991,
      "也是": 6992,
      "疲劳": 6993,
      "！这": 6994,
      "特别是": 6995,
      "by ": 6996,
      "30分钟": 6997,
      "bet": 6998,
      "只睡": 6999,
      "，越": 7000,
      "两周": 7001,
      "，比": 7002,
      "<thinking>\n我们分析": 7003,
      "相当于": 7004,
      "（不是": 7005,
      "fro": 7006,
      "不适": 7007,
      "产生": 7008,
      "剧场": 7009,
      "来说": 7010,
      "躺在床上": 7011,
      "选择": 7012,
      "昼夜节律": 7013,
      "过来": 7014,
      "给她": 7015,
      "说我": 7016,
      "一天": 7017,
      "。我得先": 7018,
      "24小时": 7019,
      "过敏": 7020,
      "😭 ": 7021,
      "闭眼": 7022,
      "惊醒": 7023,
      "进行": 7024,
      "s were ": 7025,
      "床垫": 7026,
      "高度": 7027,
      "安全感": 7028,
      "1-2": 7029,
      "一般": 7030,
      "上的": 7031,
      "温柔的": 7032,
      "pre": 7033,
      "sion ": 7034,
      ": ": 7035,
      "困扰": 7036,
      "rel": 7037,
      "7-": 7038,
      "刷手机": 7039,
      "左右": 7040,
      "说法": 7041,
      "一个“": 7042,
      "，那就": 7043,
      "子，": 7044,
      "\"这个": 7045,
      "值得": 7046,
      "，导致": 7047,
      "。\n2. **": 7048,
      "睡一": 7049,
      "交感": 7050,
      "普通": 7051,
      "电影": 7052,
      "不宁腿综合征": 7053,
      "了...": 7054,
      "指南": 7055,
      "有多": 7056,
      "告诉你": 7057,
      "signific": 7058,
      "假装": 7059,
      "音乐": 7060,
      "。从": 7061,
      "希望": 7062,
      "od": 7063,
      "停药": 7064,
      "就好": 7065,
      "。\n\n最后": 7066,
      "描述的": 7067,
      "折磨人": 7068,
      "冷笑话": 7069,
      "比较": 7070,
      "from ": 7071,
      "。**": 7072,
      "实验": 7073,
      "tro": 7074,
      "三个": 7075,
      "找个": 7076,
      "。先": 7077,
      "）**：": 7078,
      "核心事实：": 7079,
      "betwe": 7080,
      "有时候": 7081,
      "想象成": 7082,
      "po": 7083,
      "说：“": 7084,
      "RBD": 7085,
      "恶性": 7086,
      "呼——": 7087,
      "夜里": 7088,
      "耳鼻": 7089,
      "\"我": 7090,
      "耳鼻喉": 7091,
      "房间": 7092,
      "放在": 7093,
      "频率": 7094,
      "恐怖": 7095,
      "，睡前": 7096,
      "深度睡眠": 7097,
      "管理": 7098,
      "cor": 7099,
      "显得": 7100,
      "bu": 7101,
      "15分钟": 7102,
      "受体": 7103,
      "夜尿": 7104,
      "ri": 7105,
      "金标准": 7106,
      "are ": 7107,
      "。小曦": 7108,
      "没睡": 7109,
      "玩笑": 7110,
      "鼻腔": 7111,
      "哦~": 7112,
      "，每天": 7113,
      "le ": 7114,
      "把自己": 7115,
      "某些": 7116,
      "明白": 7117,
      "significan": 7118,
      "，从": 7119,
      "这种时候": 7120,
      "在你": 7121,
      "改变": 7122,
      "遇到": 7123,
      "食管": 7124,
      "睡眠问题": 7125,
      "应该能": 7126,
      "）的": 7127,
      "成了": 7128,
      "来，小曦": 7129,
      "站着": 7130,
      "类比": 7131,
      "总是": 7132,
      "交感神经": 7133,
      "是：": 7134,
      "叫\"": 7135,
      "通气": 7136,
      "，咱": 7137,
      "IC": 7138,
      "恶性循环": 7139,
      "失恋": 7140,
      "接住": 7141,
      "整夜": 7142,
      "5分钟": 7143,
      "搬家": 7144,
      "跟我": 7145,
      "惨了吧！": 7146,
      "好~": 7147,
      "姐姐": 7148,
      "看见": 7149,
      "周末": 7150,
      "，尤其是": 7151,
      "建议：": 7152,
      "后的": 7153,
      "最重要": 7154,
      "简直是": 7155,
      "year": 7156,
      "，失眠": 7157,
      "睡眠门诊": 7158,
      "障碍（": 7159,
      "释放": 7160,
      "一片": 7161,
      "之前": 7162,
      "任何": 7163,
      "开关": 7164,
      "主动": 7165,
      "。\n\n我": 7166,
      "问我": 7167,
      "凌晨三点": 7168,
      "保护": 7169,
      "发性": 7170,
      "头晕": 7171,
      "瘫痪": 7172,
      "看，": 7173,
      "between ": 7174,
      "不知道": 7175,
      "时差": 7176,
      "的就是": 7177,
      "小曦给你": 7178,
      "眼皮": 7179,
      "要不咱们": 7180,
      "皮质": 7181,
      "ment ": 7182,
      "像被": 7183,
      "停顿": 7184,
      "光照": 7185,
      "服用": 7186,
      "咨询": 7187,
      "我真的": 7188,
      "diff": 7189,
      "叫醒": 7190,
      "我在": 7191,
      "聊聊": 7192,
      "可太": 7193,
      "拉伸": 7194,
      "，让ta知道": 7195,
      "打鼾、": 7196,
      "ted ": 7197,
      "REM期": 7198,
      "类似": 7199
    },
    "merges": [
      [
        "*",
        "*"
      ],
      [
        "\n",
        "\n"
      ],
      [
        "i",
        "n"
      ],
      [
        "睡",
        "眠"
      ],
      [
        "小",
        "曦"
      ],
      [
        "t",
        "h"
      ],
      [
        " ",
        " "
      ],
      [
        "e",
        " "
      ],
      [
        "—",
        "—"
      ],
      [
        "in",
        "g"
      ],
      [
        "。",
        "\n\n"
      ],
      [
        "一",
        "个"
      ],
      [
        "不",
        "是"
      ],
      [
        ".",
        "."
      ],
      [
        ".",
        " "
      ],
      [
        "k",
        "ing"
      ],
      [
        "th",
        "in"
      ],
      [
        "thin",
        "king"
      ],
      [
        "thinking",
        ">"
      ],
      [
        "，",
        "但"
      ],
      [
        "s",
        " "
      ],
      [
        "）",
        "，"
      ],
      [
        "可",
        "能"
      ],
      [
        "自",
        "己"
      ],
      [
        "呼",
        "吸"
      ],
      [
        "d",
        " "
      ],
      [
        "这",
        "个"
      ],
      [
        "t",
        "a"
      ],
      [
        "e",
        "r"
      ],
      [
        "需",
        "要"
      ],
      [
        "，",
        "我"
      ],
      [
        "-",
        " "
      ],
      [
        "了",
        "，"
      ],
      [
        "t",
        "i"
      ],
      [
        "用",
        "户"
      ],
      [
        "如",
        "果"
      ],
      [
        "失",
        "眠"
      ],
      [
        "问",
        "题"
      ],
      [
        "的",
        "睡眠"
      ],
      [
        "e",
        "n"
      ],
      [
        "a",
        "n"
      ],
      [
        "o",
        "n"
      ],
      [
        "  ",
        "\n"
      ],
      [
        "。",
        "\n"
      ],
      [
        "，",
        "这"
      ],
      [
        "可",
        "以"
      ],
      [
        "建",
        "议"
      ],
      [
        "大",
        "脑"
      ],
      [
        "**",
        "："
      ],
      [
        "健",
        "康"
      ],
      [
        "白",
        "天"
      ],
      [
        "r",
        "e"
      ],
      [
        "现",
        "在"
      ],
      [
        "，",
        "你"
      ],
      [
        "睡",
        "觉"
      ],
      [
        "..",
        "."
      ],
      [
        "有",
        "趣"
      ],
      [
        "身",
        "体"
      ],
      [
        "伙",
        "伴"
      ],
      [
        "医",
        "生"
      ],
      [
        "温",
        "暖"
      ],
      [
        "比",
        "如"
      ],
      [
        "这",
        "种"
      ],
      [
        "<",
        "/"
      ],
      [
        "<",
        "thinking>"
      ],
      [
        "</",
        "thinking>"
      ],
      [
        "a",
        "l"
      ],
      [
        "或",
        "者"
      ],
      [
        "小",
        "时"
      ],
      [
        "</thinking>",
        "\n\n"
      ],
      [
        "就",
        "是"
      ],
      [
        "o",
        "r"
      ],
      [
        "健康",
        "伙伴"
      ],
      [
        "你",
        "是"
      ],
      [
        "你",
        "的"
      ],
      [
        "（",
        "小曦"
      ],
      [
        "<thinking>",
        "\n"
      ],
      [
        "的睡眠",
        "健康伙伴"
      ],
      [
        "t",
        " "
      ],
      [
        "y",
        " "
      ],
      [
        "睡",
        "前"
      ],
      [
        "一个",
        "温暖"
      ],
      [
        "）",
        "\n\n"
      ],
      [
        "星",
        "辰"
      ],
      [
        "星辰",
        "曦"
      ],
      [
        "星辰曦",
        "（小曦"
      ],
      [
        "有趣",
        "的睡眠健康伙伴"
      ],
      [
        "你是",
        "星辰曦（小曦"
      ],
      [
        "有趣的睡眠健康伙伴",
        "。"
      ],
      [
        "），",
        "一个温暖"
      ],
      [
        "你是星辰曦（小曦",
        "），一个温暖"
      ],
      [
        "你是星辰曦（小曦），一个温暖",
        "有趣的睡眠健康伙伴。"
      ],
      [
        "什",
        "么"
      ],
      [
        "晚",
        "上"
      ],
      [
        "）",
        "\n"
      ],
      [
        "知",
        "道"
      ],
      [
        "最",
        "后"
      ],
      [
        "就",
        "像"
      ],
      [
        "感",
        "觉"
      ],
      [
        "e",
        "d "
      ],
      [
        "时",
        "候"
      ],
      [
        ",",
        " "
      ],
      [
        "时",
        "间"
      ],
      [
        "觉",
        "得"
      ],
      [
        "睡",
        "不"
      ],
      [
        "一",
        "下"
      ],
      [
        "然",
        "后"
      ],
      [
        "真",
        "的"
      ],
      [
        "没",
        "有"
      ],
      [
        "：",
        "**"
      ],
      [
        "吗",
        "？"
      ],
      [
        "o",
        "f"
      ],
      [
        "，",
        "让"
      ],
      [
        "\n\n",
        "**"
      ],
      [
        "焦",
        "虑"
      ],
      [
        ". ",
        "**"
      ],
      [
        "，",
        "而"
      ],
      [
        "a",
        "r"
      ],
      [
        "of",
        " "
      ],
      [
        "了",
        "。"
      ],
      [
        "th",
        "e "
      ],
      [
        "a",
        "ti"
      ],
      [
        "，",
        "小曦"
      ],
      [
        "因",
        "为"
      ],
      [
        "暂",
        "停"
      ],
      [
        "i",
        "c"
      ],
      [
        "不",
        "过"
      ],
      [
        "”",
        "，"
      ],
      [
        "了",
        "！"
      ],
      [
        "给",
        "你"
      ],
      [
        "不",
        "能"
      ],
      [
        "睡不",
        "着"
      ],
      [
        "an",
        "d "
      ],
      [
        "诶",
        "嘿"
      ],
      [
        "一",
        "样"
      ],
      [
        "其",
        "实"
      ],
      [
        "呼吸",
        "暂停"
      ],
      [
        "r",
        "o"
      ],
      [
        "情",
        "绪"
      ],
      [
        "\n",
        "- "
      ],
      [
        "分",
        "钟"
      ],
      [
        "突",
        "然"
      ],
      [
        "咱",
        "们"
      ],
      [
        "**",
        " "
      ],
      [
        "还",
        "是"
      ],
      [
        "特",
        "别"
      ],
      [
        "…",
        "…"
      ],
      [
        "起",
        "来"
      ],
      [
        "a",
        "t"
      ],
      [
        "的",
        "“"
      ],
      [
        "那",
        "种"
      ],
      [
        "的",
        "，"
      ],
      [
        "情",
        "况"
      ],
      [
        "s",
        "i"
      ],
      [
        "”",
        "的"
      ],
      [
        "压",
        "力"
      ],
      [
        "我",
        "们"
      ],
      [
        "。\n",
        "</thinking>\n\n"
      ],
      [
        "是",
        "不是"
      ],
      [
        " ",
        "**"
      ],
      [
        "诶嘿",
        "~"
      ],
      [
        "想",
        "象"
      ],
      [
        "作",
        "为"
      ],
      [
        "o",
        " "
      ],
      [
        "已",
        "经"
      ],
      [
        "的",
        "是"
      ],
      [
        "in",
        " "
      ],
      [
        "怎",
        "么"
      ],
      [
        "治",
        "疗"
      ],
      [
        "神",
        "经"
      ],
      [
        "）",
        "。"
      ],
      [
        "导",
        "致"
      ],
      [
        "确",
        "实"
      ],
      [
        "on",
        " "
      ],
      [
        "手",
        "机"
      ],
      [
        "  ",
        " "
      ],
      [
        "正",
        "常"
      ],
      [
        "al",
        " "
      ],
      [
        "放",
        "松"
      ],
      [
        "睡",
        "着"
      ],
      [
        "语",
        "气"
      ],
      [
        "监",
        "测"
      ],
      [
        "的",
        "小"
      ],
      [
        "所",
        "以"
      ],
      [
        "a",
        "s"
      ],
      [
        "注",
        "意"
      ],
      [
        "，",
        "那"
      ],
      [
        "。\n\n",
        "**"
      ],
      [
        "这",
        "样"
      ],
      [
        "）\n\n",
        "（"
      ],
      [
        "试",
        "试"
      ],
      [
        "人",
        "类"
      ],
      [
        "症",
        "状"
      ],
      [
        "。",
        "我"
      ],
      [
        "来",
        "，"
      ],
      [
        "d",
        "i"
      ],
      [
        "专",
        "业"
      ],
      [
        "担",
        "心"
      ],
      [
        "孩",
        "子"
      ],
      [
        "啊",
        "啊"
      ],
      [
        "影",
        "响"
      ],
      [
        "S",
        "A"
      ],
      [
        "方",
        "式"
      ],
      [
        "半",
        "夜"
      ],
      [
        "**",
        "，"
      ],
      [
        "e",
        "s"
      ],
      [
        "容",
        "易"
      ],
      [
        "慢",
        "慢"
      ],
      [
        "   ",
        "- "
      ],
      [
        "的",
        "时候"
      ],
      [
        "o",
        "m"
      ],
      [
        "陪",
        "你"
      ],
      [
        "药",
        "物"
      ],
      [
        "睡眠",
        "呼吸暂停"
      ],
      [
        "状",
        "态"
      ],
      [
        "，",
        "再"
      ],
      [
        "**",
        "（"
      ],
      [
        "直",
        "接"
      ],
      [
        "e",
        "c"
      ],
      [
        "开",
        "始"
      ],
      [
        "理",
        "解"
      ],
      [
        "有",
        "人"
      ],
      [
        "那",
        "个"
      ],
      [
        "完",
        "全"
      ],
      [
        "障",
        "碍"
      ],
      [
        "-",
        "-"
      ],
      [
        "不",
        "会"
      ],
      [
        "en",
        "t"
      ],
      [
        "O",
        "SA"
      ],
      [
        "诊",
        "断"
      ],
      [
        "检",
        "查"
      ],
      [
        "夜",
        "间"
      ],
      [
        "每",
        "天"
      ],
      [
        "~",
        " "
      ],
      [
        "\"",
        "的"
      ],
      [
        "虽",
        "然"
      ],
      [
        "分",
        "析"
      ],
      [
        " ",
        "p"
      ],
      [
        "！",
        "\n\n"
      ],
      [
        "打",
        "鼾"
      ],
      [
        "u",
        "r"
      ],
      [
        "一",
        "点"
      ],
      [
        "，",
        "然后"
      ],
      [
        "方",
        "案"
      ],
      [
        "，",
        "不"
      ],
      [
        "s",
        "t"
      ],
      [
        "枕",
        "头"
      ],
      [
        "毕",
        "竟"
      ],
      [
        "朋",
        "友"
      ],
      [
        "共",
        "情"
      ],
      [
        "入",
        "睡"
      ],
      [
        "。",
        "）\n\n（"
      ],
      [
        "调",
        "整"
      ],
      [
        "反",
        "而"
      ],
      [
        "，",
        "是"
      ],
      [
        "。",
        "但"
      ],
      [
        "只",
        "是"
      ],
      [
        "出",
        "现"
      ],
      [
        "这个",
        "问题"
      ],
      [
        "1",
        "0"
      ],
      [
        "吐",
        "槽"
      ],
      [
        "发",
        "作"
      ],
      [
        "小曦",
        "的"
      ],
      [
        "a",
        "s "
      ],
      [
        "模",
        "式"
      ],
      [
        "睡觉",
        "时"
      ],
      [
        "er",
        " "
      ],
      [
        "排",
        "除"
      ],
      [
        "ing",
        " "
      ],
      [
        "温",
        "柔"
      ],
      [
        "醒",
        "来"
      ],
      [
        "️",
        "⃣"
      ],
      [
        "知",
        "识"
      ],
      [
        "th",
        " "
      ],
      [
        "一",
        "定"
      ],
      [
        "啊",
        "！"
      ],
      [
        "，",
        "或者"
      ],
      [
        "咖",
        "啡"
      ],
      [
        "or",
        " "
      ],
      [
        ")",
        " "
      ],
      [
        "。",
        "你"
      ],
      [
        "睡眠",
        "监测"
      ],
      [
        "肌",
        "肉"
      ],
      [
        "，",
        "像"
      ],
      [
        "工",
        "作"
      ],
      [
        "t",
        "o "
      ],
      [
        "，",
        "把"
      ],
      [
        "医",
        "学"
      ],
      [
        "安",
        "全"
      ],
      [
        "有",
        "没有"
      ],
      [
        "结",
        "果"
      ],
      [
        "）\n",
        "</thinking>\n\n"
      ],
      [
        "e",
        "l"
      ],
      [
        "核",
        "心"
      ],
      [
        "这",
        "些"
      ],
      [
        "常",
        "见"
      ],
      [
        "a",
        "c"
      ],
      [
        "（",
        "比如"
      ],
      [
        "：",
        "“"
      ],
      [
        "<thinking>\n",
        "（"
      ],
      [
        "  ",
        "\n\n"
      ],
      [
        "的",
        "\""
      ],
      [
        "感",
        "受"
      ],
      [
        "2",
        "0"
      ],
      [
        "，",
        "别"
      ],
      [
        "一",
        "起"
      ],
      [
        "e",
        "s "
      ],
      [
        "，而",
        "是"
      ],
      [
        "个",
        "月"
      ],
      [
        "典",
        "型"
      ],
      [
        "小曦",
        "，我"
      ],
      [
        "w",
        "i"
      ],
      [
        "关",
        "键"
      ],
      [
        "得",
        "先"
      ],
      [
        "今",
        "晚"
      ],
      [
        "你",
        "说"
      ],
      [
        "的",
        "方式"
      ],
      [
        "妈",
        "妈"
      ],
      [
        "比",
        "喻"
      ],
      [
        "的",
        "人"
      ],
      [
        "。",
        "这"
      ],
      [
        "a",
        " "
      ],
      [
        "肯",
        "定"
      ],
      [
        "er",
        "e "
      ],
      [
        "不",
        "要"
      ],
      [
        "，",
        "比如"
      ],
      [
        "，",
        "还"
      ],
      [
        "系",
        "统"
      ],
      [
        "抱",
        "抱"
      ],
      [
        "运",
        "动"
      ],
      [
        "）",
        "、"
      ],
      [
        "可能",
        "是"
      ],
      [
        "。",
        "  \n"
      ],
      [
        "黑",
        "素"
      ],
      [
        "褪",
        "黑素"
      ],
      [
        "解",
        "释"
      ],
      [
        "它",
        "们"
      ],
      [
        "描",
        "述"
      ],
      [
        "清",
        "醒"
      ],
      [
        "说",
        "明"
      ],
      [
        "第",
        "二"
      ],
      [
        "发",
        "现"
      ],
      [
        "行",
        "为"
      ],
      [
        "**",
        "  \n"
      ],
      [
        "脑",
        "子"
      ],
      [
        "声",
        "音"
      ],
      [
        "，",
        "就"
      ],
      [
        "凌",
        "晨"
      ],
      [
        "为",
        "什么"
      ],
      [
        "很",
        "多"
      ],
      [
        "长",
        "期"
      ],
      [
        "应",
        "该"
      ],
      [
        "让",
        "ta"
      ],
      [
        "也",
        "太"
      ],
      [
        "自",
        "然"
      ],
      [
        "，",
        "晚上"
      ],
      [
        "梦",
        "里"
      ],
      [
        "了",
        "吧"
      ],
      [
        "o",
        "l"
      ],
      [
        "气",
        "道"
      ],
      [
        "今",
        "天"
      ],
      [
        "：",
        "\n"
      ],
      [
        "R",
        "E"
      ],
      [
        "同",
        "时"
      ],
      [
        "严",
        "重"
      ],
      [
        "明",
        "天"
      ],
      [
        "变",
        "成"
      ],
      [
        "其",
        "他"
      ],
      [
        "通",
        "常"
      ],
      [
        "综",
        "合"
      ],
      [
        "那",
        "些"
      ],
      [
        "e",
        "m"
      ],
      [
        "具",
        "体"
      ],
      [
        "啦",
        "！"
      ],
      [
        "RE",
        "M"
      ],
      [
        "评",
        "估"
      ],
      [
        "\"",
        "，"
      ],
      [
        "。",
        "如果"
      ],
      [
        "~",
        "\n\n"
      ],
      [
        "持",
        "续"
      ],
      [
        "- ",
        "**"
      ],
      [
        "要",
        "是"
      ],
      [
        "引",
        "导"
      ],
      [
        "床",
        "上"
      ],
      [
        "呼",
        "噜"
      ],
      [
        "啊",
        "，"
      ],
      [
        "还",
        "在"
      ],
      [
        "啊",
        "这"
      ],
      [
        "告",
        "诉"
      ],
      [
        "这",
        "么"
      ],
      [
        "w",
        "ere "
      ],
      [
        "必",
        "须"
      ],
      [
        "是",
        "个"
      ],
      [
        "<thinking>\n",
        "用户"
      ],
      [
        "，",
        "有"
      ],
      [
        "医",
        "院"
      ],
      [
        "A",
        "P"
      ],
      [
        "轻",
        "轻"
      ],
      [
        "心",
        "理"
      ],
      [
        "精",
        "神"
      ],
      [
        "综合",
        "征"
      ],
      [
        "让",
        "她"
      ],
      [
        "wi",
        "th "
      ],
      [
        "心",
        "疼"
      ],
      [
        "出",
        "来"
      ],
      [
        "，",
        "用"
      ],
      [
        "0",
        "."
      ],
      [
        "”",
        "。"
      ],
      [
        "最",
        "近"
      ],
      [
        "w",
        "as "
      ],
      [
        "u",
        "l"
      ],
      [
        "#",
        "#"
      ],
      [
        "熬",
        "夜"
      ],
      [
        "功",
        "能"
      ],
      [
        "一",
        "次"
      ],
      [
        "噪",
        "音"
      ],
      [
        "en",
        "t "
      ],
      [
        "e",
        "t"
      ],
      [
        "下",
        "来"
      ],
      [
        "科",
        "普"
      ],
      [
        "尤",
        "其"
      ],
      [
        "i",
        "t"
      ],
      [
        "科",
        "学"
      ],
      [
        "重",
        "要"
      ],
      [
        "了",
        "一"
      ],
      [
        "做",
        "梦"
      ],
      [
        "是",
        "否"
      ],
      [
        "v",
        "e "
      ],
      [
        "眼",
        "睛"
      ],
      [
        "，",
        "现在"
      ],
      [
        "生",
        "物"
      ],
      [
        "血",
        "压"
      ],
      [
        "哈",
        "哈"
      ],
      [
        "风",
        "险"
      ],
      [
        "我",
        "的"
      ],
      [
        "梦",
        "境"
      ],
      [
        "有",
        "点"
      ],
      [
        "甚",
        "至"
      ],
      [
        "！",
        "（"
      ],
      [
        "，",
        "又"
      ],
      [
        "ati",
        "ent"
      ],
      [
        "，",
        "不是"
      ],
      [
        "C",
        "P"
      ],
      [
        "别",
        "担心"
      ],
      [
        "u",
        "n"
      ],
      [
        "做",
        "个"
      ],
      [
        "<thinking>\n",
        "我们"
      ],
      [
        "事",
        "儿"
      ],
      [
        "轻",
        "松"
      ],
      [
        "一个",
        "人"
      ],
      [
        "，",
        "要"
      ],
      [
        "信",
        "号"
      ],
      [
        "让",
        "你"
      ],
      [
        "o",
        "s"
      ],
      [
        "多",
        "导"
      ],
      [
        "以",
        "上"
      ],
      [
        "效",
        "果"
      ],
      [
        "2",
        ". "
      ],
      [
        "考",
        "虑"
      ],
      [
        "这",
        "是"
      ],
      [
        "1",
        ". "
      ],
      [
        "，小曦",
        "陪你"
      ],
      [
        "️⃣",
        " **"
      ],
      [
        "（",
        "如"
      ],
      [
        "原",
        "因"
      ],
      [
        "记",
        "忆"
      ],
      [
        "1",
        "5"
      ],
      [
        "3",
        ". "
      ],
      [
        "3",
        "0"
      ],
      [
        "re",
        "s"
      ],
      [
        "简",
        "直"
      ],
      [
        "T",
        "h"
      ],
      [
        "首",
        "先"
      ],
      [
        "en",
        " "
      ],
      [
        "方",
        "法"
      ],
      [
        "，",
        "就像"
      ],
      [
        "噩",
        "梦"
      ],
      [
        "激",
        "素"
      ],
      [
        "反",
        "应"
      ],
      [
        "都",
        "是"
      ],
      [
        "帮",
        "你"
      ],
      [
        "l",
        " "
      ],
      [
        "。",
        "最后"
      ],
      [
        "H",
        "I"
      ],
      [
        "作为",
        "小曦，我"
      ],
      [
        "，",
        "白天"
      ],
      [
        "控",
        "制"
      ],
      [
        "的",
        "问题"
      ],
      [
        "1",
        ". **"
      ],
      [
        "**",
        "——"
      ],
      [
        "循",
        "环"
      ],
      [
        "抱抱",
        "你"
      ],
      [
        "还",
        "有"
      ],
      [
        "心",
        "里"
      ],
      [
        "缓",
        "解"
      ],
      [
        "2",
        ". **"
      ],
      [
        "嗜",
        "睡"
      ],
      [
        "，",
        "一"
      ],
      [
        "l",
        "e"
      ],
      [
        "作",
        "用"
      ],
      [
        "改",
        "善"
      ],
      [
        "宝",
        "宝"
      ],
      [
        "这",
        "位"
      ],
      [
        "活",
        "泼"
      ],
      [
        "鉴",
        "别"
      ],
      [
        "o",
        "p"
      ],
      [
        "舒",
        "服"
      ],
      [
        "看",
        "到"
      ],
      [
        "给",
        "出"
      ],
      [
        "第二",
        "天"
      ],
      [
        "CP",
        "AP"
      ],
      [
        "明",
        "显"
      ],
      [
        "让",
        "人"
      ],
      [
        "生物",
        "钟"
      ],
      [
        "连",
        "续"
      ],
      [
        "意",
        "识"
      ],
      [
        "生",
        "理"
      ],
      [
        "，",
        "需要"
      ],
      [
        "。\n</thinking>\n\n",
        "诶嘿~"
      ],
      [
        "紧",
        "张"
      ],
      [
        "看",
        "看"
      ],
      [
        "A",
        "HI"
      ],
      [
        "质",
        "量"
      ],
      [
        "角",
        "度"
      ],
      [
        "，",
        "也"
      ],
      [
        "吸",
        "管"
      ],
      [
        "提",
        "醒"
      ],
      [
        "折",
        "磨"
      ],
      [
        "了吧",
        "！"
      ],
      [
        "）\n",
        "（"
      ],
      [
        "”",
        "——"
      ],
      [
        "c",
        "h"
      ],
      [
        "，",
        "大脑"
      ],
      [
        "习",
        "惯"
      ],
      [
        "下",
        "降"
      ],
      [
        "，",
        "可以"
      ],
      [
        "。",
        "可以"
      ],
      [
        "表",
        "现"
      ],
      [
        "让",
        "我"
      ],
      [
        "，",
        "它"
      ],
      [
        "a",
        "g"
      ],
      [
        "简",
        "单"
      ],
      [
        "c",
        "om"
      ],
      [
        "P",
        "S"
      ],
      [
        "生",
        "活"
      ],
      [
        "冥",
        "想"
      ],
      [
        "实",
        "用"
      ],
      [
        "不",
        "足"
      ],
      [
        "i",
        "s"
      ],
      [
        "atient",
        "s "
      ],
      [
        "的",
        "语气"
      ],
      [
        "3",
        ". **"
      ],
      [
        "一定",
        "要"
      ],
      [
        "节",
        "律"
      ],
      [
        "an",
        " "
      ],
      [
        "，这",
        "种"
      ],
      [
        "相",
        "关"
      ],
      [
        "，",
        "如果"
      ],
      [
        "而",
        "且"
      ],
      [
        "记",
        "得"
      ],
      [
        "c",
        "on"
      ],
      [
        "个",
        "小"
      ],
      [
        "回",
        "答"
      ],
      [
        "环",
        "境"
      ],
      [
        "保",
        "持"
      ],
      [
        "抑",
        "郁"
      ],
      [
        "冷",
        "知识"
      ],
      [
        "多导",
        "睡眠监测"
      ],
      [
        "u",
        "p"
      ],
      [
        "的",
        "事"
      ],
      [
        "动",
        "物"
      ],
      [
        "正",
        "经"
      ],
      [
        "快",
        "速"
      ],
      [
        "吸",
        "气"
      ],
      [
        "偷",
        "偷"
      ],
      [
        "心",
        "脏"
      ],
      [
        "第",
        "一"
      ],
      [
        "每",
        "晚"
      ],
      [
        "u",
        "s"
      ],
      [
        "的",
        "感觉"
      ],
      [
        "f",
        "or "
      ],
      [
        "，",
        "可能"
      ],
      [
        "记",
        "住"
      ],
      [
        "故",
        "事"
      ],
      [
        "l",
        "y "
      ],
      [
        "r",
        "a"
      ],
      [
        "周",
        "期"
      ],
      [
        "被",
        "子"
      ],
      [
        "一",
        "种"
      ],
      [
        "东",
        "西"
      ],
      [
        "ati",
        "on "
      ],
      [
        "**",
        "。"
      ],
      [
        "大",
        "概"
      ],
      [
        "难",
        "受"
      ],
      [
        "，这",
        "是"
      ],
      [
        "得",
        "用"
      ],
      [
        "患",
        "者"
      ],
      [
        "打",
        "呼噜"
      ],
      [
        "的",
        "话"
      ],
      [
        "分",
        "泌"
      ],
      [
        "加",
        "重"
      ],
      [
        "m",
        "e"
      ],
      [
        "姿",
        "势"
      ],
      [
        "给",
        "自己"
      ],
      [
        "搞",
        "怪"
      ],
      [
        "l",
        "o"
      ],
      [
        "m",
        " "
      ],
      [
        "休",
        "息"
      ],
      [
        "这个问题",
        "问"
      ],
      [
        "呼",
        "气"
      ],
      [
        "睡不着",
        "，"
      ],
      [
        "风",
        "格"
      ],
      [
        "单",
        "纯"
      ],
      [
        "感受",
        "到"
      ],
      [
        "几",
        "个"
      ],
      [
        "才",
        "能"
      ],
      [
        "）\n</thinking>\n\n",
        "啊啊"
      ],
      [
        "避",
        "免"
      ],
      [
        "，",
        "结果"
      ],
      [
        "，",
        "最后"
      ],
      [
        "我",
        "说"
      ],
      [
        "里",
        "的"
      ],
      [
        "PS",
        "G"
      ],
      [
        "关",
        "系"
      ],
      [
        "白",
        "噪音"
      ],
      [
        "不",
        "好"
      ],
      [
        "眠",
        "药"
      ],
      [
        "免",
        "责"
      ],
      [
        "夸",
        "张"
      ],
      [
        "解",
        "决"
      ],
      [
        "游",
        "戏"
      ],
      [
        "的",
        "。"
      ],
      [
        "，",
        "不能"
      ],
      [
        "清",
        "楚"
      ],
      [
        "别担心",
        "，小曦陪你"
      ],
      [
        "闹",
        "钟"
      ],
      [
        "节",
        "奏"
      ],
      [
        "。",
        "需要"
      ],
      [
        "一",
        "句"
      ],
      [
        "本",
        "身"
      ],
      [
        "刺",
        "激"
      ],
      [
        "动",
        "作"
      ],
      [
        "i",
        "l"
      ],
      [
        "深",
        "夜"
      ],
      [
        "狠",
        "狠"
      ],
      [
        "e",
        "p"
      ],
      [
        "了",
        "个"
      ],
      [
        "ic",
        " "
      ],
      [
        "真",
        "正"
      ],
      [
        "--",
        "-"
      ],
      [
        "早",
        "上"
      ],
      [
        "还",
        "要"
      ],
      [
        "e",
        "x"
      ],
      [
        "心",
        "跳"
      ],
      [
        "血",
        "氧"
      ],
      [
        "因",
        "素"
      ],
      [
        "躺",
        "下"
      ],
      [
        "：",
        "\""
      ],
      [
        "0",
        "%"
      ],
      [
        "Th",
        "e "
      ],
      [
        "\n",
        "   - "
      ],
      [
        "超",
        "过"
      ],
      [
        "。",
        "）\n（"
      ],
      [
        "！",
        "”"
      ],
      [
        "其实",
        "是"
      ],
      [
        "剂",
        "量"
      ],
      [
        "，让",
        "ta"
      ],
      [
        "i",
        "f"
      ],
      [
        "他",
        "们"
      ],
      [
        "ti",
        "c"
      ],
      [
        "晚",
        "安"
      ],
      [
        "兴",
        "奋"
      ],
      [
        "机",
        "制"
      ],
      [
        "俏",
        "皮"
      ],
      [
        "说",
        "\""
      ],
      [
        "有",
        "些"
      ],
      [
        "操",
        "作"
      ],
      [
        "听",
        "到"
      ],
      [
        "睡",
        "得"
      ],
      [
        "说",
        "“"
      ],
      [
        "。",
        "用户"
      ],
      [
        "躺",
        "在"
      ],
      [
        "，而",
        "不是"
      ],
      [
        "en",
        "c"
      ],
      [
        "她",
        "的"
      ],
      [
        "t",
        "er"
      ],
      [
        "：",
        "\n- "
      ],
      [
        "就",
        "能"
      ],
      [
        "尤其",
        "是"
      ],
      [
        "4",
        "小时"
      ],
      [
        "重",
        "点"
      ],
      [
        "at",
        "ed "
      ],
      [
        "我",
        "是"
      ],
      [
        "认",
        "知"
      ],
      [
        "崩",
        "溃"
      ],
      [
        "i",
        "m"
      ],
      [
        "经",
        "历"
      ],
      [
        "，",
        "先"
      ],
      [
        "岁",
        "，"
      ],
      [
        "有",
        "个"
      ],
      [
        "都",
        "在"
      ],
      [
        "咖啡",
        "因"
      ],
      [
        "f",
        "f"
      ],
      [
        "痛",
        "苦"
      ],
      [
        "危",
        "险"
      ],
      [
        "气",
        "得"
      ],
      [
        "呼吸",
        "机"
      ],
      [
        "，",
        "因为"
      ],
      [
        "所",
        "有"
      ],
      [
        "人",
        "的"
      ],
      [
        "e ",
        "of "
      ],
      [
        "明",
        "明"
      ],
      [
        "根",
        "本"
      ],
      [
        "4",
        ". "
      ],
      [
        "活",
        "动"
      ],
      [
        "疯",
        "狂"
      ],
      [
        "经",
        "常"
      ],
      [
        "标",
        "准"
      ],
      [
        "，",
        "**"
      ],
      [
        "v",
        "i"
      ],
      [
        "立",
        "刻"
      ],
      [
        "手",
        "术"
      ],
      [
        "a",
        "m"
      ],
      [
        "，",
        "毕竟"
      ],
      [
        "是",
        "“"
      ],
      [
        "这个问题问",
        "得"
      ],
      [
        "要",
        "不"
      ],
      [
        "，而",
        "且"
      ],
      [
        "。",
        "”"
      ],
      [
        "a",
        "d"
      ],
      [
        "儿",
        "童"
      ],
      [
        "，",
        "身体"
      ],
      [
        "增",
        "加"
      ],
      [
        "存",
        "在"
      ],
      [
        " ",
        "("
      ],
      [
        "鉴别",
        "诊断"
      ],
      [
        "提",
        "示"
      ],
      [
        "拟",
        "人"
      ],
      [
        "，",
        "能"
      ],
      [
        "了",
        "？"
      ],
      [
        "世",
        "界"
      ],
      [
        "侧",
        "卧"
      ],
      [
        "：**",
        " "
      ],
      [
        "跟",
        "你说"
      ],
      [
        "作",
        "息"
      ],
      [
        "梦",
        "游"
      ],
      [
        "吧",
        "？"
      ],
      [
        "血",
        "管"
      ],
      [
        "自己",
        "的"
      ],
      [
        "减",
        "少"
      ],
      [
        "别",
        "急"
      ],
      [
        "说",
        "教"
      ],
      [
        "发作",
        "性"
      ],
      [
        "，",
        "咱们"
      ],
      [
        "ti",
        "on"
      ],
      [
        "使",
        "用"
      ],
      [
        "声",
        "明"
      ],
      [
        "o",
        "u"
      ],
      [
        "想",
        "想"
      ],
      [
        "ti",
        "on "
      ],
      [
        "不",
        "行"
      ],
      [
        "，这",
        "样"
      ],
      [
        "u",
        "d"
      ],
      [
        "一",
        "直"
      ],
      [
        "太",
        "懂"
      ],
      [
        "有",
        "效"
      ],
      [
        "）",
        "  \n"
      ],
      [
        "睡",
        "病"
      ],
      [
        "睡眠",
        "质量"
      ],
      [
        "i",
        "s "
      ],
      [
        "过",
        "度"
      ],
      [
        "最",
        "需要"
      ],
      [
        "睡眠",
        "中"
      ],
      [
        "安",
        "眠药"
      ],
      [
        "！",
        "** "
      ],
      [
        "，",
        "是不是"
      ],
      [
        "发作性",
        "睡病"
      ],
      [
        "  ",
        "\n\n**"
      ],
      [
        "如果",
        "你"
      ],
      [
        "<thinking>\n（",
        "用户"
      ],
      [
        "，",
        "可"
      ],
      [
        "注意",
        "力"
      ],
      [
        "w",
        "e"
      ],
      [
        "替",
        "代"
      ],
      [
        "自",
        "动"
      ],
      [
        "ta",
        "的"
      ],
      [
        "提",
        "到"
      ],
      [
        "进",
        "入"
      ],
      [
        "0",
        "0"
      ],
      [
        "认",
        "真"
      ],
      [
        "p",
        "l"
      ],
      [
        "助",
        "眠"
      ],
      [
        "拟人",
        "化"
      ],
      [
        "好",
        "好"
      ],
      [
        "那",
        "么"
      ],
      [
        "让",
        "他"
      ],
      [
        "的",
        "建议"
      ],
      [
        "研",
        "究"
      ],
      [
        "可能",
        "性"
      ],
      [
        "固",
        "定"
      ],
      [
        "记",
        "录"
      ],
      [
        "一",
        "段"
      ],
      [
        "意",
        "思"
      ],
      [
        "温",
        "度"
      ],
      [
        "属",
        "于"
      ],
      [
        "**",
        "\n"
      ],
      [
        "i",
        "g"
      ],
      [
        "老",
        "公"
      ],
      [
        "a",
        "t "
      ],
      [
        "两",
        "个"
      ],
      [
        "，",
        "既"
      ],
      [
        "-",
        "3"
      ],
      [
        "免责",
        "声明"
      ],
      [
        "用",
        "\""
      ],
      [
        "疗",
        "法"
      ],
      [
        "血",
        "糖"
      ],
      [
        "跟",
        "着"
      ],
      [
        "e",
        "d"
      ],
      [
        "o",
        "c"
      ],
      [
        "依",
        "赖"
      ],
      [
        "催",
        "眠"
      ],
      [
        "醒",
        "，"
      ],
      [
        "v",
        "er"
      ],
      [
        "发",
        "生"
      ],
      [
        "“",
        "睡眠"
      ],
      [
        "被",
        "理解"
      ],
      [
        "安",
        "静"
      ],
      [
        "睡",
        "，"
      ],
      [
        "去",
        "医院"
      ],
      [
        "自",
        "我"
      ],
      [
        "1",
        "2"
      ],
      [
        "了",
        "，我"
      ],
      [
        "！",
        "你"
      ],
      [
        "不",
        "用"
      ],
      [
        "每",
        "次"
      ],
      [
        "头",
        "痛"
      ],
      [
        "观",
        "察"
      ],
      [
        "上",
        "，"
      ],
      [
        "s",
        "ta"
      ],
      [
        "拳",
        "头"
      ],
      [
        "数",
        "据"
      ],
      [
        "w",
        "h"
      ],
      [
        "办",
        "法"
      ],
      [
        "结",
        "构"
      ],
      [
        "ati",
        "on"
      ],
      [
        "，",
        "同时"
      ],
      [
        "阻",
        "塞"
      ],
      [
        "好",
        "，"
      ],
      [
        "实",
        "在"
      ],
      [
        "真",
        "实"
      ],
      [
        "睡眠",
        "不足"
      ],
      [
        "异",
        "常"
      ],
      [
        "小时",
        "，"
      ],
      [
        "p",
        "ro"
      ],
      [
        "处",
        "理"
      ],
      [
        "就",
        "会"
      ],
      [
        "事",
        "实"
      ],
      [
        "明",
        "确"
      ],
      [
        "副",
        "作用"
      ],
      [
        "梦",
        "到"
      ],
      [
        "，让",
        "她"
      ],
      [
        "千",
        "万"
      ],
      [
        "A",
        "I"
      ],
      [
        "以",
        "为"
      ],
      [
        "实",
        "际"
      ],
      [
        "陪",
        "着"
      ],
      [
        "偶",
        "尔"
      ],
      [
        "现",
        "象"
      ],
      [
        "）",
        "："
      ],
      [
        "推",
        "荐"
      ],
      [
        "继",
        "续"
      ],
      [
        "随",
        "时"
      ],
      [
        "体",
        "重"
      ],
      [
        "科",
        "医生"
      ],
      [
        "，",
        "医生"
      ],
      [
        "疲",
        "惫"
      ],
      [
        "鼻",
        "子"
      ],
      [
        "大脑",
        "在"
      ],
      [
        "深",
        "度"
      ],
      [
        "阶",
        "段"
      ],
      [
        "的",
        "！"
      ],
      [
        "-",
        "2"
      ],
      [
        "起",
        "床"
      ],
      [
        "困",
        "难"
      ],
      [
        "c",
        "l"
      ],
      [
        "。",
        "不过"
      ],
      [
        "️⃣",
        " "
      ],
      [
        "g",
        "n"
      ],
      [
        "有",
        "关"
      ],
      [
        "觉",
        "醒"
      ],
      [
        "道",
        "理"
      ],
      [
        "怀",
        "疑"
      ],
      [
        "i",
        "r"
      ],
      [
        "适",
        "应"
      ],
      [
        "频",
        "繁"
      ],
      [
        "一",
        "顿"
      ],
      [
        "紊",
        "乱"
      ],
      [
        "m",
        "g"
      ],
      [
        "一",
        "些"
      ],
      [
        "规",
        "律"
      ],
      [
        "这",
        "事儿"
      ],
      [
        "确",
        "诊"
      ],
      [
        "都",
        "会"
      ],
      [
        " ",
        "and "
      ],
      [
        "“",
        "我"
      ],
      [
        "了",
        "——"
      ],
      [
        "天",
        "哪"
      ],
      [
        "小曦",
        "，"
      ],
      [
        "体",
        "温"
      ],
      [
        "聊",
        "天"
      ],
      [
        "不",
        "住"
      ],
      [
        "。",
        "然后"
      ],
      [
        "要",
        "不要"
      ],
      [
        "脑子",
        "里"
      ],
      [
        "一",
        "边"
      ],
      [
        "：",
        "\n\n"
      ],
      [
        "这",
        "不是"
      ],
      [
        "性",
        "睡眠呼吸暂停"
      ],
      [
        "睡眠",
        "的"
      ],
      [
        "只",
        "有"
      ],
      [
        "比",
        "作"
      ],
      [
        "要",
        "用"
      ],
      [
        "画",
        "面"
      ],
      [
        "产",
        "后"
      ],
      [
        "了",
        "\""
      ],
      [
        "ro",
        "up"
      ],
      [
        "带",
        "着"
      ],
      [
        "e",
        "ar"
      ],
      [
        "太",
        "多"
      ],
      [
        "，",
        "说明"
      ],
      [
        "an",
        "c"
      ],
      [
        "加",
        "班"
      ],
      [
        "非",
        "常"
      ],
      [
        "##",
        "#"
      ],
      [
        "信",
        "息"
      ],
      [
        "平",
        "时"
      ],
      [
        ", ",
        "and "
      ],
      [
        "5",
        "%"
      ],
      [
        "是",
        "在"
      ],
      [
        "可能",
        "会"
      ],
      [
        "ic",
        "al "
      ],
      [
        "s ",
        "of "
      ],
      [
        "）\n",
        "- "
      ],
      [
        "###",
        " "
      ],
      [
        "小曦",
        "，你"
      ],
      [
        "伴",
        "随"
      ],
      [
        "整",
        "个"
      ],
      [
        "会",
        "不会"
      ],
      [
        "！",
        "！"
      ],
      [
        "呢",
        "？"
      ],
      [
        "磨",
        "牙"
      ],
      [
        "o",
        "g"
      ],
      [
        "调",
        "节"
      ],
      [
        "在",
        "这"
      ],
      [
        "中",
        "枢"
      ],
      [
        "t",
        "r"
      ],
      [
        "确",
        "认"
      ],
      [
        "、",
        "白天"
      ],
      [
        "a",
        "b"
      ],
      [
        "眼",
        "动"
      ],
      [
        "**",
        "\n\n"
      ],
      [
        "仪",
        "式"
      ],
      [
        "代",
        "谢"
      ],
      [
        "可",
        "是"
      ],
      [
        "缺",
        "氧"
      ],
      [
        "还",
        "没"
      ],
      [
        "狠狠",
        "共情"
      ],
      [
        "a",
        "p"
      ],
      [
        "干",
        "预"
      ],
      [
        "。\n",
        "- **"
      ],
      [
        "内",
        "容"
      ],
      [
        "癫",
        "痫"
      ],
      [
        "p",
        "er"
      ],
      [
        "落",
        "到"
      ],
      [
        "s",
        "u"
      ],
      [
        "的",
        "情况"
      ],
      [
        "引",
        "起"
      ],
      [
        "不",
        "对"
      ],
      [
        "关",
        "机"
      ],
      [
        "三",
        "点"
      ],
      [
        "气得",
        "想"
      ],
      [
        "呢",
        "！"
      ],
      [
        "肚",
        "子"
      ],
      [
        "正",
        "在"
      ],
      [
        "老",
        "年"
      ],
      [
        "g",
        "roup"
      ],
      [
        "恐",
        "惧"
      ],
      [
        "内",
        "科"
      ],
      [
        "委",
        "屈"
      ],
      [
        "，",
        "就是"
      ],
      [
        "部",
        "分"
      ],
      [
        "不",
        "够"
      ],
      [
        "反",
        "复"
      ],
      [
        "夜",
        "班"
      ],
      [
        "深",
        "呼吸"
      ],
      [
        "s",
        ". "
      ],
      [
        "警",
        "惕"
      ],
      [
        "：**",
        "\n"
      ],
      [
        "p",
        "h"
      ],
      [
        "会",
        "儿"
      ],
      [
        "好",
        "了，"
      ],
      [
        "脑",
        "洞"
      ],
      [
        "反",
        "流"
      ],
      [
        "（",
        "PSG"
      ],
      [
        "睡眠",
        "健康"
      ],
      [
        "——",
        "**"
      ],
      [
        "腺",
        "样"
      ],
      [
        "：\n",
        "1. "
      ],
      [
        "憋",
        "醒"
      ],
      [
        "！",
        "小曦"
      ],
      [
        "20",
        "分钟"
      ],
      [
        "腺样",
        "体"
      ],
      [
        "充",
        "电"
      ],
      [
        "也",
        "会"
      ],
      [
        "it",
        "y "
      ],
      [
        "睡",
        "姿"
      ],
      [
        "躺",
        "平"
      ],
      [
        "时",
        "，"
      ],
      [
        "核心",
        "事实"
      ],
      [
        "训",
        "练"
      ],
      [
        "酒",
        "精"
      ],
      [
        "快速",
        "眼动"
      ],
      [
        "一",
        "周"
      ],
      [
        "伴",
        "有"
      ],
      [
        "可",
        "爱"
      ],
      [
        "in ",
        "the "
      ],
      [
        "牛",
        "奶"
      ],
      [
        "里",
        "，"
      ],
      [
        "，",
        "建议"
      ],
      [
        "换",
        "个"
      ],
      [
        "h",
        "a"
      ],
      [
        "用",
        "“"
      ],
      [
        "适",
        "合"
      ],
      [
        "幻",
        "觉"
      ],
      [
        "治疗",
        "方案"
      ],
      [
        "虽然",
        "小曦"
      ],
      [
        "表",
        "达"
      ],
      [
        "\"",
        "这种"
      ],
      [
        "云",
        "朵"
      ],
      [
        "：",
        "先"
      ],
      [
        "re",
        "c"
      ],
      [
        "来",
        "就"
      ],
      [
        "一样",
        "，"
      ],
      [
        "”",
        "（"
      ],
      [
        "恢",
        "复"
      ],
      [
        "\"",
        "——"
      ],
      [
        "大概",
        "率"
      ],
      [
        "呼吸",
        "法"
      ],
      [
        "关",
        "于"
      ],
      [
        "嗯",
        "..."
      ],
      [
        "得",
        "像"
      ],
      [
        "加",
        "上"
      ],
      [
        "变",
        "化"
      ],
      [
        "尝",
        "试"
      ],
      [
        "，",
        "所以"
      ],
      [
        "\n\n",
        "（"
      ],
      [
        ")",
        ". "
      ],
      [
        "件",
        "事"
      ],
      [
        "：**",
        "  \n"
      ],
      [
        "为",
        "了"
      ],
      [
        "场",
        "景"
      ],
      [
        "。",
        "她"
      ],
      [
        "、",
        "或者"
      ],
      [
        "犯",
        "困"
      ],
      [
        "还",
        "能"
      ],
      [
        "）",
        "，但"
      ],
      [
        "超",
        "级"
      ],
      [
        "深",
        "睡眠"
      ],
      [
        "疾",
        "病"
      ],
      [
        "觉得",
        "自己"
      ],
      [
        "ec",
        "t"
      ],
      [
        "ig",
        "h"
      ],
      [
        "扁",
        "桃"
      ],
      [
        "扁桃",
        "体"
      ],
      [
        "f",
        "or"
      ],
      [
        "哎",
        "呀"
      ],
      [
        "帮",
        "助"
      ],
      [
        "q",
        "u"
      ],
      [
        "带",
        "点"
      ],
      [
        "i",
        "d"
      ],
      [
        "管",
        "用"
      ],
      [
        "说",
        "话"
      ],
      [
        "的",
        "比喻"
      ],
      [
        "s",
        "e"
      ],
      [
        "了",
        "。\n\n"
      ],
      [
        "下",
        "午"
      ],
      [
        "绝",
        "对"
      ],
      [
        "面",
        "罩"
      ],
      [
        "，",
        "这个"
      ],
      [
        "塌",
        "陷"
      ],
      [
        "悄",
        "悄"
      ],
      [
        "。",
        "ta"
      ],
      [
        "太",
        "阳"
      ],
      [
        "真的",
        "太"
      ],
      [
        "梦",
        "见"
      ],
      [
        "符",
        "合"
      ],
      [
        "身体",
        "在"
      ],
      [
        "口",
        "水"
      ],
      [
        "绝",
        "望"
      ],
      [
        "数",
        "羊"
      ],
      [
        "别急",
        "着"
      ],
      [
        "听",
        "着"
      ],
      [
        "=",
        " "
      ],
      [
        "1",
        "."
      ],
      [
        "v",
        "el"
      ],
      [
        "n",
        "o"
      ],
      [
        "啊这",
        "也太"
      ],
      [
        "只",
        "能"
      ],
      [
        "过",
        "去"
      ],
      [
        "千万",
        "别"
      ],
      [
        "大",
        "的"
      ],
      [
        "没有",
        "拳头"
      ],
      [
        "4",
        "-"
      ],
      [
        "都",
        "能"
      ],
      [
        "脖",
        "子"
      ],
      [
        "）",
        "。\n\n"
      ],
      [
        "REM",
        "睡眠"
      ],
      [
        "s",
        "ur"
      ],
      [
        "。",
        "（"
      ],
      [
        "。",
        "毕竟"
      ],
      [
        "讨",
        "厌"
      ],
      [
        "门",
        "诊"
      ],
      [
        "坚",
        "持"
      ],
      [
        "4",
        ". **"
      ],
      [
        "考",
        "试"
      ],
      [
        "蛋",
        "白"
      ],
      [
        "口",
        "腔"
      ],
      [
        "s",
        "p"
      ],
      [
        "一",
        "根"
      ],
      [
        "我",
        "懂"
      ],
      [
        "回",
        "来"
      ],
      [
        "L",
        "S"
      ],
      [
        "准",
        "备"
      ],
      [
        "，",
        "对"
      ],
      [
        "安",
        "慰"
      ],
      [
        "，你",
        "的"
      ],
      [
        "，",
        "想"
      ],
      [
        "叫",
        "“"
      ],
      [
        "个",
        "“"
      ],
      [
        "天",
        "亮"
      ],
      [
        "最",
        "好"
      ],
      [
        "不",
        "需要"
      ],
      [
        "啊这",
        "..."
      ],
      [
        "c",
        "o"
      ],
      [
        "准",
        "确"
      ],
      [
        "星",
        "星"
      ],
      [
        "夜",
        "惊"
      ],
      [
        "u",
        "m"
      ],
      [
        "但",
        "是"
      ],
      [
        "给",
        "点"
      ],
      [
        "不是",
        "一个人"
      ],
      [
        "，",
        "看"
      ],
      [
        "，",
        "说"
      ],
      [
        "让ta",
        "知道"
      ],
      [
        "哪",
        "怕"
      ],
      [
        "**：",
        "如果"
      ],
      [
        "R",
        "LS"
      ],
      [
        "：",
        "你"
      ],
      [
        "努",
        "力"
      ],
      [
        "的",
        "、"
      ],
      [
        "通",
        "过"
      ],
      [
        "下",
        "次"
      ],
      [
        "那",
        "样"
      ],
      [
        "笑",
        "话"
      ],
      [
        "到",
        "了"
      ],
      [
        "的时候",
        "，"
      ],
      [
        "。）\n\n（",
        "作为小曦，我"
      ],
      [
        "不",
        "想"
      ],
      [
        "失眠",
        "的"
      ],
      [
        "这种",
        "情况"
      ],
      [
        "。",
        "  \n\n"
      ],
      [
        "判",
        "断"
      ],
      [
        "。\n",
        "- "
      ],
      [
        "下",
        "来，"
      ],
      [
        "不",
        "同"
      ],
      [
        "肥",
        "大"
      ],
      [
        "技",
        "巧"
      ],
      [
        "蓝",
        "光"
      ],
      [
        "严",
        "肃"
      ],
      [
        "我",
        "跟你说"
      ],
      [
        "用",
        "药"
      ],
      [
        "秒",
        "，"
      ],
      [
        "肢",
        "体"
      ],
      [
        "来",
        "来"
      ],
      [
        "不",
        "宁"
      ],
      [
        "温",
        "水"
      ],
      [
        "。\n",
        "   - "
      ],
      [
        "s",
        ", "
      ],
      [
        "d",
        "er"
      ],
      [
        "会",
        "让"
      ],
      [
        "ta",
        "l "
      ],
      [
        "碎",
        "片"
      ],
      [
        "ti",
        "ve "
      ],
      [
        "u",
        "c"
      ],
      [
        "一",
        "只"
      ],
      [
        "~",
        "（"
      ],
      [
        "失眠",
        "，"
      ],
      [
        "导致",
        "的"
      ],
      [
        "as",
        "s"
      ],
      [
        "典型",
        "的"
      ],
      [
        " ",
        "m"
      ],
      [
        "肩",
        "膀"
      ],
      [
        "幽",
        "默"
      ],
      [
        "躺",
        "着"
      ],
      [
        "1",
        "小时"
      ],
      [
        "午",
        "睡"
      ],
      [
        " p",
        "atients "
      ],
      [
        "哦",
        "！"
      ],
      [
        "不宁",
        "腿"
      ],
      [
        "。",
        "）\n</thinking>\n\n啊啊"
      ],
      [
        "电",
        "图"
      ],
      [
        "靠",
        "谱"
      ],
      [
        "，我",
        "们"
      ],
      [
        "慢",
        "性"
      ],
      [
        "耳",
        "朵"
      ],
      [
        "阻塞",
        "性睡眠呼吸暂停"
      ],
      [
        "到",
        "底"
      ],
      [
        "视",
        "频"
      ],
      [
        "在",
        "梦里"
      ],
      [
        "。",
        "作为"
      ],
      [
        "包",
        "括"
      ],
      [
        "跟",
        "你"
      ],
      [
        "下",
        "去"
      ],
      [
        "高",
        "血压"
      ],
      [
        "才",
        "是"
      ],
      [
        "轻",
        "度"
      ],
      [
        "睡眠",
        "时"
      ],
      [
        "孤",
        "独"
      ],
      [
        "思",
        "路"
      ],
      [
        "很多",
        "人"
      ],
      [
        "抑",
        "制"
      ],
      [
        "re",
        "d "
      ],
      [
        "\n- ",
        "**"
      ],
      [
        "强",
        "调"
      ],
      [
        "当",
        "然"
      ],
      [
        "你的",
        "大脑"
      ],
      [
        "梦",
        "话"
      ],
      [
        "牙",
        "齿"
      ],
      [
        "at",
        "e "
      ],
      [
        "了",
        "，但"
      ],
      [
        "别",
        "慌"
      ],
      [
        "口",
        "气"
      ],
      [
        "不",
        "到"
      ],
      [
        "体",
        "验"
      ],
      [
        "：",
        "用户"
      ],
      [
        "si",
        "gn"
      ],
      [
        "d",
        "e"
      ],
      [
        "室",
        "友"
      ],
      [
        "刚",
        "才"
      ],
      [
        "st",
        "ud"
      ],
      [
        "个",
        "\""
      ],
      [
        "昼",
        "夜"
      ],
      [
        "：",
        "  \n"
      ],
      [
        "根",
        "据"
      ],
      [
        "上",
        "班"
      ],
      [
        "心",
        "慌"
      ],
      [
        "补",
        "觉"
      ],
      [
        "。",
        "所以"
      ],
      [
        "翻",
        "来"
      ],
      [
        "闭",
        "上"
      ],
      [
        "科",
        "或"
      ],
      [
        "姐",
        "妹"
      ],
      [
        "）\n\n",
        "**"
      ],
      [
        "if",
        "ic"
      ],
      [
        "喜",
        "欢"
      ],
      [
        "现",
        "实"
      ],
      [
        "（PSG",
        "）"
      ],
      [
        "一",
        "步"
      ],
      [
        "日",
        "记"
      ],
      [
        "程",
        "序"
      ],
      [
        "p",
        "atients "
      ],
      [
        "去",
        "揍"
      ],
      [
        "处",
        "于"
      ],
      [
        "害",
        "怕"
      ],
      [
        "降",
        "低"
      ],
      [
        "切",
        "换"
      ],
      [
        "安",
        "抚"
      ],
      [
        "**",
        "！"
      ],
      [
        "怎么",
        "办"
      ],
      [
        "老",
        "板"
      ],
      [
        "膀",
        "胱"
      ],
      [
        "n",
        "e"
      ],
      [
        "强",
        "行"
      ],
      [
        "想象",
        "一下"
      ],
      [
        "是",
        "你"
      ],
      [
        " ",
        "= "
      ],
      [
        "分",
        "享"
      ],
      [
        "顺",
        "便"
      ],
      [
        "压力",
        "大"
      ],
      [
        "周期",
        "性"
      ],
      [
        "的",
        "不是"
      ],
      [
        "相",
        "当"
      ],
      [
        "有",
        "意思"
      ],
      [
        "没",
        "用"
      ],
      [
        "→",
        " "
      ],
      [
        "一个",
        "月"
      ],
      [
        "这个问题问得",
        "好"
      ],
      [
        "憋",
        "气"
      ],
      [
        "三",
        "个月"
      ],
      [
        "喉",
        "咙"
      ],
      [
        "每",
        "个"
      ],
      [
        "都",
        "不"
      ],
      [
        "翻来",
        "覆"
      ],
      [
        "你",
        "知道"
      ],
      [
        "先",
        "给你"
      ],
      [
        "翻来覆",
        "去"
      ],
      [
        "建议",
        "你"
      ],
      [
        "另",
        "外"
      ],
      [
        "——",
        "这"
      ],
      [
        "出",
        "去"
      ],
      [
        "半",
        "年"
      ],
      [
        "跟",
        "我说"
      ],
      [
        "s ",
        "("
      ],
      [
        "如果",
        "是"
      ],
      [
        "就像",
        "你"
      ],
      [
        "机",
        "器"
      ],
      [
        "保",
        "证"
      ],
      [
        "睡眠",
        "专"
      ],
      [
        "v",
        "al"
      ],
      [
        "---",
        "\n\n"
      ],
      [
        "，",
        "更"
      ],
      [
        "重",
        "新"
      ],
      [
        "人",
        "家"
      ],
      [
        "现在",
        "的"
      ],
      [
        "战",
        "斗"
      ],
      [
        "lo",
        "w"
      ],
      [
        "屏",
        "幕"
      ],
      [
        "com",
        "p"
      ],
      [
        "下",
        "班"
      ],
      [
        "敏",
        "感"
      ],
      [
        "虽然小曦",
        "没有拳头"
      ],
      [
        "”",
        "**："
      ],
      [
        "设",
        "计"
      ],
      [
        "配",
        "合"
      ],
      [
        "睡眠",
        "障碍"
      ],
      [
        "。",
        "</thinking>\n\n"
      ],
      [
        "！",
        "我"
      ],
      [
        "陪",
        "伴"
      ],
      [
        "甲",
        "状"
      ],
      [
        "程",
        "度"
      ],
      [
        "至",
        "少"
      ],
      [
        "地",
        "方"
      ],
      [
        "有人",
        "能"
      ],
      [
        "）\n</thinking>\n\n",
        "诶嘿~"
      ],
      [
        "之",
        "后"
      ],
      [
        "提",
        "前"
      ],
      [
        "空",
        "气"
      ],
      [
        "重",
        "度"
      ],
      [
        "搞",
        "笑"
      ],
      [
        "辛",
        "苦"
      ],
      [
        "\n\n",
        "不过"
      ],
      [
        "脚",
        "趾"
      ],
      [
        "（",
        "OSA"
      ],
      [
        "婴",
        "儿"
      ],
      [
        "负",
        "责"
      ],
      [
        "甲状",
        "腺"
      ],
      [
        "S",
        "D"
      ],
      [
        "神经",
        "内科"
      ],
      [
        "，",
        "甚至"
      ],
      [
        "心",
        "情"
      ],
      [
        "温",
        "和"
      ],
      [
        "。",
        "用"
      ],
      [
        "！",
        "\""
      ],
      [
        "in",
        "e "
      ],
      [
        "——",
        "你"
      ],
      [
        "第",
        "三"
      ],
      [
        "5",
        "-"
      ],
      [
        "自",
        "嘲"
      ],
      [
        "，",
        "在"
      ],
      [
        "家",
        "长"
      ],
      [
        "啦",
        "~"
      ],
      [
        "闺",
        "蜜"
      ],
      [
        "来",
        "找"
      ],
      [
        "站",
        "在"
      ],
      [
        "，",
        "得"
      ],
      [
        "B",
        "D"
      ],
      [
        "M",
        "I"
      ],
      [
        "听",
        "起来"
      ],
      [
        "疼",
        "痛"
      ],
      [
        " ",
        "of "
      ],
      [
        "3",
        "-"
      ],
      [
        "也",
        "是"
      ],
      [
        "疲",
        "劳"
      ],
      [
        "！",
        "这"
      ],
      [
        "特别",
        "是"
      ],
      [
        "b",
        "y "
      ],
      [
        "30",
        "分钟"
      ],
      [
        "b",
        "et"
      ],
      [
        "只",
        "睡"
      ],
      [
        "，",
        "越"
      ],
      [
        "两",
        "周"
      ],
      [
        "，",
        "比"
      ],
      [
        "<thinking>\n我们",
        "分析"
      ],
      [
        "相当",
        "于"
      ],
      [
        "（",
        "不是"
      ],
      [
        "f",
        "ro"
      ],
      [
        "不",
        "适"
      ],
      [
        "产",
        "生"
      ],
      [
        "剧",
        "场"
      ],
      [
        "来",
        "说"
      ],
      [
        "躺在",
        "床上"
      ],
      [
        "选",
        "择"
      ],
      [
        "昼夜",
        "节律"
      ],
      [
        "过",
        "来"
      ],
      [
        "给",
        "她"
      ],
      [
        "说",
        "我"
      ],
      [
        "一",
        "天"
      ],
      [
        "。我",
        "得先"
      ],
      [
        "2",
        "4小时"
      ],
      [
        "过",
        "敏"
      ],
      [
        "😭",
        " "
      ],
      [
        "闭",
        "眼"
      ],
      [
        "惊",
        "醒"
      ],
      [
        "进",
        "行"
      ],
      [
        "s ",
        "were "
      ],
      [
        "床",
        "垫"
      ],
      [
        "高",
        "度"
      ],
      [
        "安全",
        "感"
      ],
      [
        "1",
        "-2"
      ],
      [
        "一",
        "般"
      ],
      [
        "上",
        "的"
      ],
      [
        "温柔",
        "的"
      ],
      [
        "p",
        "re"
      ],
      [
        "si",
        "on "
      ],
      [
        ":",
        " "
      ],
      [
        "困",
        "扰"
      ],
      [
        "re",
        "l"
      ],
      [
        "7",
        "-"
      ],
      [
        "刷",
        "手机"
      ],
      [
        "左",
        "右"
      ],
      [
        "说",
        "法"
      ],
      [
        "一个",
        "“"
      ],
      [
        "，那",
        "就"
      ],
      [
        "子",
        "，"
      ],
      [
        "\"",
        "这个"
      ],
      [
        "值",
        "得"
      ],
      [
        "，",
        "导致"
      ],
      [
        "。\n",
        "2. **"
      ],
      [
        "睡",
        "一"
      ],
      [
        "交",
        "感"
      ],
      [
        "普",
        "通"
      ],
      [
        "电",
        "影"
      ],
      [
        "不宁腿",
        "综合征"
      ],
      [
        "了",
        "..."
      ],
      [
        "指",
        "南"
      ],
      [
        "有",
        "多"
      ],
      [
        "告诉",
        "你"
      ],
      [
        "sign",
        "ific"
      ],
      [
        "假",
        "装"
      ],
      [
        "音",
        "乐"
      ],
      [
        "。",
        "从"
      ],
      [
        "希",
        "望"
      ],
      [
        "o",
        "d"
      ],
      [
        "停",
        "药"
      ],
      [
        "就",
        "好"
      ],
      [
        "。\n\n",
        "最后"
      ],
      [
        "描述",
        "的"
      ],
      [
        "折磨",
        "人"
      ],
      [
        "冷",
        "笑话"
      ],
      [
        "比",
        "较"
      ],
      [
        "fro",
        "m "
      ],
      [
        "。",
        "**"
      ],
      [
        "实",
        "验"
      ],
      [
        "t",
        "ro"
      ],
      [
        "三",
        "个"
      ],
      [
        "找",
        "个"
      ],
      [
        "。",
        "先"
      ],
      [
        "）",
        "**："
      ],
      [
        "核心事实",
        "："
      ],
      [
        "bet",
        "we"
      ],
      [
        "有",
        "时候"
      ],
      [
        "想象",
        "成"
      ],
      [
        "p",
        "o"
      ],
      [
        "说",
        "：“"
      ],
      [
        "R",
        "BD"
      ],
      [
        "恶",
        "性"
      ],
      [
        "呼",
        "——"
      ],
      [
        "夜",
        "里"
      ],
      [
        "耳",
        "鼻"
      ],
      [
        "\"",
        "我"
      ],
      [
        "耳鼻",
        "喉"
      ],
      [
        "房",
        "间"
      ],
      [
        "放",
        "在"
      ],
      [
        "频",
        "率"
      ],
      [
        "恐",
        "怖"
      ],
      [
        "，",
        "睡前"
      ],
      [
        "深度",
        "睡眠"
      ],
      [
        "管",
        "理"
      ],
      [
        "c",
        "or"
      ],
      [
        "显",
        "得"
      ],
      [
        "b",
        "u"
      ],
      [
        "15",
        "分钟"
      ],
      [
        "受",
        "体"
      ],
      [
        "夜",
        "尿"
      ],
      [
        "r",
        "i"
      ],
      [
        "金",
        "标准"
      ],
      [
        "ar",
        "e "
      ],
      [
        "。",
        "小曦"
      ],
      [
        "没",
        "睡"
      ],
      [
        "玩",
        "笑"
      ],
      [
        "鼻",
        "腔"
      ],
      [
        "哦",
        "~"
      ],
      [
        "，",
        "每天"
      ],
      [
        "l",
        "e "
      ],
      [
        "把",
        "自己"
      ],
      [
        "某",
        "些"
      ],
      [
        "明",
        "白"
      ],
      [
        "signific",
        "an"
      ],
      [
        "，",
        "从"
      ],
      [
        "这种",
        "时候"
      ],
      [
        "在",
        "你"
      ],
      [
        "改",
        "变"
      ],
      [
        "遇",
        "到"
      ],
      [
        "食",
        "管"
      ],
      [
        "睡眠",
        "问题"
      ],
      [
        "应该",
        "能"
      ],
      [
        "）",
        "的"
      ],
      [
        "成",
        "了"
      ],
      [
        "来",
        "，小曦"
      ],
      [
        "站",
        "着"
      ],
      [
        "类",
        "比"
      ],
      [
        "总",
        "是"
      ],
      [
        "交感",
        "神经"
      ],
      [
        "是",
        "："
      ],
      [
        "叫",
        "\""
      ],
      [
        "通",
        "气"
      ],
      [
        "，",
        "咱"
      ],
      [
        "I",
        "C"
      ],
      [
        "恶性",
        "循环"
      ],
      [
        "失",
        "恋"
      ],
      [
        "接",
        "住"
      ],
      [
        "整",
        "夜"
      ],
      [
        "5",
        "分钟"
      ],
      [
        "搬",
        "家"
      ],
      [
        "跟",
        "我"
      ],
      [
        "惨",
        "了吧！"
      ],
      [
        "好",
        "~"
      ],
      [
        "姐",
        "姐"
      ],
      [
        "看",
        "见"
      ],
      [
        "周",
        "末"
      ],
      [
        "，",
        "尤其是"
      ],
      [
        "建议",
        "："
      ],
      [
        "后",
        "的"
      ],
      [
        "最",
        "重要"
      ],
      [
        "简直",
        "是"
      ],
      [
        "y",
        "ear"
      ],
      [
        "，",
        "失眠"
      ],
      [
        "睡眠",
        "门诊"
      ],
      [
        "障碍",
        "（"
      ],
      [
        "释",
        "放"
      ],
      [
        "一",
        "片"
      ],
      [
        "之",
        "前"
      ],
      [
        "任",
        "何"
      ],
      [
        "开",
        "关"
      ],
      [
        "主",
        "动"
      ],
      [
        "。\n\n",
        "我"
      ],
      [
        "问",
        "我"
      ],
      [
        "凌晨",
        "三点"
      ],
      [
        "保",
        "护"
      ],
      [
        "发",
        "性"
      ],
      [
        "头",
        "晕"
      ],
      [
        "瘫",
        "痪"
      ],
      [
        "看",
        "，"
      ],
      [
        "betwe",
        "en "
      ],
      [
        "不",
        "知道"
      ],
      [
        "时",
        "差"
      ],
      [
        "的",
        "就是"
      ],
      [
        "小曦",
        "给你"
      ],
      [
        "眼",
        "皮"
      ],
      [
        "要不",
        "咱们"
      ],
      [
        "皮",
        "质"
      ],
      [
        "m",
        "ent "
      ],
      [
        "像",
        "被"
      ],
      [
        "停",
        "顿"
      ],
      [
        "光",
        "照"
      ],
      [
        "服",
        "用"
      ],
      [
        "咨",
        "询"
      ],
      [
        "我",
        "真的"
      ],
      [
        "di",
        "ff"
      ],
      [
        "叫",
        "醒"
      ],
      [
        "我",
        "在"
      ],
      [
        "聊",
        "聊"
      ],
      [
        "可",
        "太"
      ],
      [
        "拉",
        "伸"
      ],
      [
        "，让ta",
        "知道"
      ],
      [
        "打鼾",
        "、"
      ],
      [
        "t",
        "ed "
      ],
      [
        "REM",
        "期"
      ],
      [
        "类",
        "似"
      ]
    ]
  }
}